#version: 0.2
Ġ t
h e
Ġ a
i n
Ġt he
e r
o n
Ġ ,
r e
Ġ s
e d
Ġ o
Ġ w
n d
a t
Ġ .
o r
i t
Ġ c
e n
Ġ f
i s
e s
a r
Ġo f
Ġ b
a n
Ġ in
a l
in g
Ġ p
Ġa nd
a s
Ġt o
r o
i c
Ġ m
Ġ d
Ġ h
i on
l e
o u
Ġ T
Ġ re
Ġ =
Ġ "
Ġ A
Ġ S
en t
i l
Ġt h
Ġ 1
s t
Ġ C
e l
o m
Ġ l
a m
Ġ Ċ
Ġ e
Ġ n
Ġ @
a d
a c
Ġw as
Ġ M
u r
ĠT he
e c
Ġ on
l y
Ġ B
Ġ I
Ġ g
Ġ '
e t
o l
i d
i v
i m
Ġf or
i r
- @
Ġ@ -@
i g
o t
t er
Ġa s
Ġ H
u s
o w
Ġs t
u t
it h
a y
Ġ 2
Ġ P
at ion
v er
Ġb e
he r
Ġth at
Ġw ith
Ġ R
c e
t h
Ġ D
Ġ is
u n
e m
Ġ F
Ġw h
u l
Ġb y
Ġa l
c h
Ġ )
Ġ (
Ġ W
Ġc on
r a
Ġ G
o s
Ġ L
Ġ N
Ġa t
er s
c t
Ġ it
Ġ1 9
ro m
a nd
Ġa n
u m
es t
Ġ J
a g
Ġ he
0 0
is t
a in
o d
a v
r i
Ġ E
Ġ O
Ġf rom
Ġc om
Ġh is
o p
Ġp ro
re s
i es
i f
Ġ v
or t
er e
il l
l d
Ġd e
p p
Ġs u
o re
ĠI n
Ġ r
Ġs e
Ġw ere
e w
on g
ig h
ar d
at e
al l
ar t
a k
ic h
Ġc h
Ġo r
a b
an t
u d
o c
b er
Ġe x
g h
it y
at ed
p t
es s
e ar
Ġ K
Ġp l
am e
q u
iv e
ro u
Ġa re
Ġ â
Ġs h
Ġ k
ac k
ec t
Ġâ Ģ
Ġ U
Ġh ad
s e
Ġwh ich
re d
o v
ĠS t
as t
Ġs p
i an
Ġ y
m ent
Ġ le
Ġn ot
g e
or d
r it
i p
in e
el l
al ly
ou r
o st
igh t
t her
a p
Ġ u
is h
ĠC h
ou n
i a
Ġ 3
av e
ar y
u st
o g
Ġ2 00
Ġ un
ou s
ir st
Ġ V
c c
Ġin c
Ġ ;
Ġcom p
r u
ion s
Ġthe ir
Ġb ut
id e
u re
s o
Ġcon t
Ġin t
f ter
ic al
i al
Ġa r
Ġf irst
ou ld
Ġit s
he d
ĠâĢ ĵ
Ġw he
w o
ou t
u b
Ġ2 0
f f
Ġ :
u e
Ġ her
ow n
o k
Ġal so
Ġc l
p er
ig n
at er
r an
or m
i e
om e
or k
as s
i re
e nd
Ġre s
Ġa b
Ġa d
Ġ us
r y
Ġre c
Ġh ave
ag e
ĠH e
Ġ 4
Ġ ro
m er
Ġon e
on d
l ow
Ġh as
ĠT h
d u
Ġ 5
Ġp er
Ġbe en
im e
Ġt wo
en ce
l and
Ġ1 8
. @
Ġ@ .@
ul t
re e
ou gh
i le
Ġwh o
ĠA l
Ġs c
ur ing
p l
or y
it ion
r ic
ation s
Ġd is
Ġth is
Ġb ec
Ġa pp
i z
ĠI t
a re
ac h
l ud
ad e
Ġpl ay
Ġ j
Ġm an
ac t
el y
Ġp art
Ġd es
Ġa g
Ġthe y
Ġy ear
oun t
Ġ20 1
Ġo ver
Ġo ther
ou nd
Ġa fter
i b
o ver
Ġs er
Ġ en
Ġof f
Ġ im
ct ion
Ġ Y
k e
it e
, @
Ġ@ ,@
t e
ur n
Ġinc lud
res s
an ce
an g
Ġat t
ic e
ac e
ar k
Ġo ut
w n
p h
em ber
Ġp re
Ġu p
en s
m an
Ġe v
Ġt ime
nd er
rou gh
c ed
Ġf in
Ġint o
on e
p ort
rou nd
w e
re n
l es
in t
ĠO n
v el
Ġcom m
Ġs he
as on
am p
Ġt e
Ġw ould
w ard
Ġm ore
Ġ 6
i ed
os e
ri b
ĠU n
Ġal l
ing s
ter n
c es
ab le
Ġw e
it ed
e ver
ent s
Ġh im
as ed
or s
o y
o od
Ġc ent
i x
as e
il d
ĠA n
Ġ 7
Ġw ork
at es
i ous
at h
Ġp o
ro p
ol d
al s
is s
e y
ic t
Ġf e
Ġthe m
g an
Ġs ec
Ġb et
Ġwhe n
Ġs ong
Ġre m
e p
f orm
a il
f er
Ġe ar
ub l
a w
Ġk n
ak e
a us
Ġm ost
Ġcon s
Ġd uring
ĠA s
or th
Ġn ew
er ed
il m
v ed
at t
Ġon ly
Ġ 9
Ġd ec
Ġ 8
ic k
Ġg ame
on s
u g
Ġt r
f t
ot h
o ok
ĠM ar
re at
w ay
Ġc an
ol low
ou th
we en
ĠE n
Ġ19 9
ter s
Ġre l
in d
Ġab out
Ġse ason
Ġag ain
r al
Ġth ree
ation al
Ġu nder
ul ar
Ġm e
Ġth an
ĠC om
ĠA r
h ip
o b
Ġn e
Ġbet ween
Ġf l
h n
v e
Ġch ar
Ġc ol
Ġrec ord
i ew
r on
f ore
Ġth rough
is ion
or n
Ġ 00
oc k
Ġ ver
Ġl ater
Ġn um
Ġe nd
ol og
am es
Ġp os
Ġw rit
Ġpro du
Ġwh ile
Ġa ct
Ġre le
Ġf ilm
is hed
Ġp r
an s
Ġre g
Ġfor m
Ġas s
ĠS e
ur y
t ed
t s
Ġm ade
Ġsu b
Ġp e
Ġs o
or ld
Ġre t
ĠN ew
Ġsp ec
Ġa cc
Ġ qu
Ġwhe re
en er
Ġm ov
he s
mer ic
at ing
Ġin ter
ĠL e
ĠA meric
Ġ ra
Ġs ome
Ġc o
Ġl ar
Ġb u
Ġde f
b um
Ġa c
Ġm us
Ġf ollow
ĠA t
in s
iv ed
if ic
u al
Ġa m
Ġsu ch
Ġsec ond
i ke
Ġf our
Ġin d
an n
he n
Ġus ed
ĠR e
ic s
le ct
Ġd ay
i el
il y
ĠTh is
Ġ 0
Ġp ubl
Ġc all
ĠJ o
l l
Ġal bum
Ġ00 0
ran s
Ġd o
an y
Ġbe fore
ro s
ĠS h
Ġs y
a id
ĠEn g
Ġbe ing
Ġ1 0
u c
Ġe p
Ġsu pp
Ġthe re
Ġyear s
ar s
ow ever
Ġ ent
if e
Ġh igh
Ġf ound
ir d
Ġn o
Ġs et
in es
iv er
i o
ot her
j ect
Ġs ur
a j
t en
Ġt ra
Ġ1 2
is ed
it ies
vel op
Ġb l
al e
Ġser ies
Ġl oc
Ġnum ber
Ġp res
an e
aus e
od e
e k
t on
ĠS c
i er
is e
Ġse ver
in ce
Ġb oth
an k
ro w
ire ct
s on
Ġthe n
ĠB rit
i et
Ġ1 6
Ġep is
Ġinclud ing
it s
ig in
p r
Ġ /
Ġagain st
Ġw ell
Ġbec ame
Ġex p
Ġkn own
Ġt rans
Ġchar ac
ĠâĢ Ķ
r am
Ġb ack
Ġad d
Ġp op
Ġg o
ur ch
Ġdes c
Ġs ing
iel d
Ġper form
ain ed
Ġre ce
id ent
Ġe m
er t
u res
Ġin v
Ġde p
Ġ19 8
a ir
er n
at her
f ul
Ġ Z
Ġm on
Ġman y
Ġm ain
Ġst ud
Ġl ong
in n
th ough
u p
o ol
ĠUn ited
l ed
em ent
Ġ1 5
ow er
ĠJo hn
Ġo p
Ġ1 1
in ed
Ġm et
o ber
le y
Ġ1 7
Ġcent ury
Ġte am
Ġ est
ĠA fter
y l
Ġm in
u ch
ut e
Ġde velop
ĠS he
i am
Ġsh ow
el f
Ġre p
Ġcon c
at ive
Ġc re
over n
a red
Ġ19 4
Ġor igin
Ġs m
iv ers
a z
Ġle ad
Ġsever al
a h
Ġo b
Ġre v
Ġm ill
er m
u ally
o ot
Ġbe gan
Ġ19 6
i red
Ġd if
Ġcont in
Ġs ign
i k
ĠI nd
ment s
iz ed
Ġ19 7
Ġd irect
a u
Ġex t
ros s
em b
d er
Ġp ol
Ġm ay
a pt
el s
ĠW h
Ġcomp le
Ġar t
ĠB r
ĠI s
un e
t il
Ġc rit
Ġh ist
Ġear ly
Ġc ould
ĠC on
Ġd id
Ġb el
Ġcall ed
u ed
Ġn ear
Ġepis ode
y p
Ġdesc rib
im es
Ġb ro
rou p
op le
Ġd own
Ġr un
ak ing
Ġdis c
Ġal ong
cc ess
ĠM ay
Ġfe at
Ġin st
ĠAmeric an
Ġs aid
Ġd ist
Ġin f
Ġim p
in k
Ġin s
t y
Ġthe se
Ġm il
v en
ĠG er
g est
i um
en n
ĠB l
ĠA ust
Ġres p
ul l
ru ct
u red
Ġth ough
Ġsh ip
ov e
Ġo per
ĠBrit ish
Ã ©
Ġun til
Ġpre v
it t
am ed
Ġc ar
ce pt
Ġst art
Ġc ity
Ġg ener
Ġs ame
ain s
ĠW ar
ist s
i ally
id ed
Ġrele ased
Ġl and
is m
ĠC ar
Ġo wn
Ġw ar
Ġan y
Ġpro v
Ġret urn
Ġa ir
ĠThe y
x t
ers on
om an
Ġmus ic
Ġk m
Ġdes ign
aj or
ĠP l
ib le
os ed
Ġs im
Ġcon st
Ġapp ear
Ġmill ion
Ġbec ause
Ġf am
as h
Ġm at
Ġare a
Ġus e
Ġ1 3
ĠA ug
ĠCh r
ĠAug ust
Ġo cc
Ġp h
Ġop en
Ġl ike
on y
Ġsu ccess
o le
ou se
er v
Ġc ount
Ġp ass
os s
Ġe ff
Ġpe ople
m y
ch ool
u nd
ĠS p
st em
ĠC l
Ġoff ic
et s
Ġs ix
ut h
an ge
u es
Ġ19 5
Ġsupp ort
Ġa round
Ġsm all
ĠC ol
ĠH owever
ĠSe pt
Ġd am
Ġ %
Ġad v
Ġm od
Ġe le
Ġn orth
ĠJ u
al es
Ġhe ad
i ent
Ġg overn
Ġg roup
ra ph
Ġcharac ter
Ġb r
Ġg r
Ġ ed
Ġe ach
Ġpo int
ĠSept ember
ĠA d
ward s
Ġcons id
ut ion
ĠD e
ĠGer man
Ġfollow ing
ĠW orld
Ġl ife
Ġg u
ĠCom m
ĠAl l
ĠAust ral
an c
Ġan n
Ġcont ro
ur al
Ġf ive
Ġv ar
y s
ĠH er
ĠU S
Ġatt ack
g ed
Ġ19 3
ord ing
Ġres ult
Ġw ill
in a
c k
Ġ Q
Ġe ver
ĠP ro
Ġ19 1
ĠE u
Ġlar ge
ĠM e
ĠI I
l ish
ĠN orth
l ing
Ġb ook
Ġre port
on t
ag ue
ĠF ran
b le
ĠF or
o x
ac ed
he l
ĠJ une
Ġt it
end ed
d om
il t
iv es
Ġ1 4
at s
Ġp rom
e b
m ed
Ġwe ek
at ely
av ing
ore d
Ġst r
ĠJ an
Ġs ince
ĠSt ates
Ġfin al
Ġm ajor
a x
Ġs outh
Ġrece ived
ĠS outh
iv ision
ĠG u
Ġn ame
Ġpart ic
er y
Ġhe l
olog y
pt ion
ĠChr ist
Ġc are
ĠO ct
Ġpubl ic
Ġre st
Ġsy stem
ect ed
il ity
ĠB e
t ing
ĠK ing
Ġst ate
Ġb att
a e
Ġwh at
ag es
u ary
Ġl ast
ra nd
Ġdescrib ed
ĠOct ober
Ġl ine
Ġcl ass
Ġ $
Ġd et
iv ing
ra ft
ĠN ov
Ġplay ed
Ġpro t
Ġinc re
a ur
rop ical
Ġto ok
Ġm ar
Ġn ow
if ied
a im
ĠP ar
ion al
g et
ro te
ant s
od y
Ġ [
Ġ ]
iv ely
ĠY ork
Ġbu ild
Ġw orld
. .
Ġl ate
ĠD ec
y c
Ġ2 5
ĠJu ly
Ġw rote
em pt
b all
b y
es p
ĠEu rop
re t
Ġw on
a pp
ide o
Ġspec ies
s ion
Ġch ild
ian s
Ġ. ..
om et
i od
Ġp ort
Ġm uch
ĠC an
ĠD uring
Ġcon f
Ġser v
Ġc amp
ect ion
Ġre f
Ġd ue
ec h
Ġsh ort
ar n
Ġal low
Ġsing le
ĠA pr
ĠApr il
Ġdif fer
Ġj ust
Ġde ath
ic ally
r act
Ġst ar
Ġs l
Ġg un
iss ion
om in
it al
ĠM c
ĠA nd
Ġan other
Ġinclud ed
ĠM us
Ġpos s
a i
Ġo ld
Ġt ri
h am
Ġst orm
ĠG e
Ġv is
ĠJan uary
Ġ3 0
Ġl ist
Ġle ft
Ġev en
Ġp ar
Ġwith in
ĠEng land
p le
Ġpro g
Ġapp ro
g er
it ions
Ġn amed
op s
Ġb ased
Ġest ab
Ġ if
in c
Ġal though
Ġatt empt
Ġto p
il ar
Ġtr ack
Ġver y
Ġbel ie
Ġb re
Ġth ird
ard s
Ġh um
Ġw ater
ĠMar ch
en e
Ġg ames
Ġor gan
c hed
or p
ent ly
Ġbe g
Ġp ower
Ġev ent
Ġprev ious
Ġfam ily
Ġs chool
m s
Ġb est
ur ric
ul ation
ĠNov ember
an ces
Ġper iod
Ġrev iew
Ġw ay
ĠH is
Ġm en
as ter
Ġex pl
Ġh ome
ĠEurop e
Ġf ur
qu e
Ġgovern ment
Ġt yp
ĠB y
ĠP h
i ence
Ġt urn
Ġ19 2
ĠDec ember
le t
at ure
Ġc ap
Ġth ose
Ġh and
ĠThe re
av y
Ġpl ace
ac hed
Ġm ed
he st
ĠC ity
Ġst ory
o int
ag ed
Ġbu ilt
ed er
am b
Ġg reat
en se
Ġd r
en ces
Ġp erson
iv en
Ġcomm and
Ġ1 00
Ġk ill
ĠF l
ĠW hen
oc i
Ġmon th
Ġs ent
it ary
el t
Ġo pp
Ġm ake
Ġorigin al
ivers ity
o ad
Ġ Â
Ġh al
Ġre qu
v es
id es
ĠP r
ĠN ational
Ġen g
g y
n ess
ent ion
Ġ200 9
ĠO r
Ġ201 0
Ġa uth
Ġv ideo
Ġ200 8
b s
Ġan t
is on
Ġm ark
Ġd em
Ġsu g
ru ction
ak es
Ġpres ent
l ine
Ġle g
Ġcl ub
ĠM an
ĠR iver
ren ch
iv al
Ġv iew
ĠB ro
ri end
o ard
Ġre pl
og raph
Ġc apt
al k
Ġst ill
Ġmov ed
Ġloc al
Ġst and
en g
Ġl ed
Ġro le
ot t
ain ing
l er
Ġt erm
Ġc ame
ak en
Ġd est
Ġis s
or ies
un g
s ide
id ge
m p
Ġd ra
Ġof ten
Ġcomm on
Ġadd ition
Ġhist ory
urric ane
Ġc aus
le v
s h
ĠCom p
at ter
Ġtr ad
re w
Ġf ew
ĠN o
ĠW e
ĠCh ar
Ġsug gest
l u
re ad
is ter
ĠA b
Ġ200 7
Ġne xt
Ġeff ect
Ġconsid ered
Ġb as
Ġde b
Ġplay er
ĠOn e
i or
Ġc our
as tern
Ġm id
ĠT r
ĠEng lish
Ġhel p
e ad
Ġex per
ut ed
ĠF rench
Ġcare er
Ġs ide
Ġsim ilar
Ġrecord ed
ĠB att
ay s
Ġr ight
Ġ X
Ġw in
Ġin it
Ġim port
ĠA cc
Ġre al
s elf
ĠR ec
Ġcl aim
Ġc over
Ġar ch
Ġcomp any
b e
in ing
Ġto wn
Ġpubl ished
Ġs old
Ġcontin ued
Ġre fer
Ġex c
Ġw ind
Ġdiffer ent
Ġy ou
Ġt ake
Ġwith out
tern ational
Ġsong s
ĠW ith
y n
Ġto t
ĠP er
ĠP ort
Ġro ad
Ġfor mer
Ġ2 1
Ġpol it
Ġt w
Ġt em
ĠB ar
Ġhe ld
c hes
ĠT e
Ġm emb
Ġam ong
Ġle vel
Ġ el
ĠW ill
n ing
Ġf ield
Ġm ag
p ar
Ġe lect
n er
im ent
Ġa v
it ar
Ġd el
us s
Ġpro p
Ġwrit ten
inn ing
it er
res ent
Ġever y
ĠA m
ĠSt ate
es tern
Ġ2 3
ĠE ar
Ġcomm un
Ġhal f
le ar
y le
ĠD ivision
amp ions
Ġ201 1
Ġrele ase
ri ed
Ġfur ther
ot s
Ġbec ome
Ġw est
Ġ200 6
ens ive
ĠAcc ording
Ġc r
en c
ro du
Ġch urch
ĠAl though
Ġstr ong
Ġf ore
Ġh owever
Ġday s
ro y
Ġfin d
ĠCan ad
Ġc ur
ic es
Ġe ast
is ing
ĠC ount
Ġver sion
Ġf oot
Ġbe h
Ġsp e
au gh
Ġpartic ular
er ing
Ġ &
Ġm y
Ġl ow
ĠCh urch
iz e
eb ru
ĠG ener
Ġpro f
Ġcomp et
Ġpos ition
Ġtit le
Ġ2 4
ĠW est
Ġmil itary
ĠR oman
Ġcon v
Ġauth or
Ġ2 2
Ġ2 6
Ġapp e
re en
Ġor der
ĠLe ague
ou ther
Ġs ol
ron t
itt le
Ġcontro l
outher n
Ġt imes
ĠS ong
ac es
f ric
Ġb and
ĠF ebru
ĠFebru ary
Ġf re
pp ed
Ġl ess
Ġg ave
Ġpro ject
Ġv ict
Ġdef e
yl an
ĠGe or
os p
ĠAs s
Ġ !
ĠD ylan
Ġch ang
Ġreport ed
Ġmemb ers
Ġn ort
ĠP ark
ric k
Ġn ov
Ġprodu ced
Ġst at
lev ision
Ġtot al
is c
ar m
et er
her n
Ġ201 2
ay ing
ĠO ld
Ġar r
iet y
Ġc ult
Ġpop ular
Ġt er
Ġf ire
es c
oun g
ail ed
Ġprodu ction
ur s
ap an
Ġob s
Ġt ropical
he m
ĠS im
Ġ2 8
ĠP ol
ress ion
Ġp ost
Ġfor ces
ĠSt e
Ġcrit ic
f ord
ĠH a
ĠJ apan
Ġchild ren
Ġhist or
Ġp at
Ġh aving
us h
ĠE d
Ġinclud e
al d
ec hn
r ing
our s
Ġsur v
Ġinv ol
Ġinf lu
al ion
n e
Ġs k
Ġl ost
ren t
Ġa ff
at ic
ĠS u
Ġg iven
Ġcount ry
Ġw ant
ab ly
Ġrep resent
w ork
ĠE l
Ġsign ific
ĠC ent
om en
ĠD av
Ġman ag
op e
pl oy
ĠGener al
Ġp ress
Ġe qu
ver s
Ġ201 3
g es
Ġe ight
ĠM iss
Ġcom b
re et
Ġs it
Ġs ite
ad es
Ġse en
ir c
Ġprog ram
s p
on es
o on
Ġm aking
ĠA fric
Ġn ever
Ġmat ch
r ation
Ġf em
Ġst ated
Ġestab l
Ã ¡
it her
Ġb ody
Ġpl an
Ġf act
Ġre ad
Ġor d
Ġsh ould
ĠWh ile
ĠE v
se qu
Ġ5 0
Ġreturn ed
f ic
at or
ĠUn iversity
olog ical
Ġs oc
Ġf t
a un
Ġ er
Ġs ound
Ġ19 0
Ä ģ
re m
Ġh ow
ap e
ĠThe se
Ġg en
Ġis land
ĠN e
ĠAmeric a
Ġc ou
Ġst ruct
Ġear l
Ġship s
Ġann oun
Ġestabl ished
ampions hip
Ġg od
Ġg round
ĠJ ack
Ġch art
Ġpop ulation
a ff
re am
Ġc at
Ġd iv
Ġre ached
Ġj o
g round
Ġ2 7
n a
v iew
re land
Ġl ight
Ġnot ed
a ul
k i
Ġa way
Ġf riend
ĠI reland
ĠBl ack
il le
ig ade
us ed
um ent
in ation
ff ic
es e
Ġl im
ol l
Ġthrough out
Ġac ross
ĠRe g
Ġdevelop ed
Ġthough t
i ec
ĠM ich
ĠL ond
Ġse ven
Ġs omet
Ġc ast
ain t
ord s
st er
Ġg l
Ġpro c
ĠWill iam
ĠLond on
Ġp ra
Ġr ad
Ġint rodu
a f
Ġg ood
ĠF eder
Ġus ing
Ġhim self
Ġdevelop ment
Ġbl ack
in ess
om b
Ġh ig
ĠH ar
Ġf elt
id ence
ree k
ĠAustral ia
Ġhum an
Ġsignific ant
Ġ ide
ĠA ir
ut es
are n
Ġw at
Ġperform ed
Ġb ar
um p
Ġimport ant
m ost
iv il
ĠG l
Ġad m
ĠAt l
it ive
Ġn ight
Ġwrit ing
Ġf un
ĠP al
ĠR ich
ĠE x
Ġdest roy
Ġf ather
ĠM ag
Ġmil es
Ġb o
ant ic
Ġte levision
ĠR oy
Ġinter est
Ġvar ious
os aur
Ġare as
ie f
Ġto ur
im ately
Ġwh ite
Ġmod ern
Ġf ull
f ield
Ġt en
Ġd ied
ĠC al
Ġl ook
ri e
og n
Ġen c
Ġact iv
a el
a ign
Ġw ent
Ġl aw
ĠR ober
Ġne ed
Ġt ro
Ġev ents
Ġpr im
Ġdo es
Ġsuccess ful
ĠR oad
ic o
Ġre d
iz ation
Ġdisc over
Ġplay ers
Ġstart ed
Ġm m
ĠT o
ra b
ĠJ ames
Ġdec l
c on
re g
Ġb all
ri pt
Ġse e
it ing
Ġh ouse
Ġfe et
Ġform ed
k s
Ġw id
our n
Ġpo em
Ġt echn
Ġm ix
Ġr ange
ĠM ount
Ġset t
Ġperform ance
ĠCount y
re st
Ġp ut
Ġst yle
Ġv ill
Ġrel ations
Ġbuild ing
Ġa ge
Ġs um
Ġto o
Ġfor ce
ab or
Ġcaus ed
Ã Ń
an a
Ġk e
in o
ep end
ar a
ĠY ou
al th
ĠK e
ubl ic
Ġs w
en ed
ĠC ro
Ġnov el
Ġp ri
i ers
ist ed
Ġ18 9
Ġcre ated
Ġoffic ial
d ay
f all
id d
ell ing
as ing
ĠS om
Ġ200 4
ĠAn g
y m
Ġp it
Ġ200 5
Ġrel ig
Ġent ire
g r
l ess
Ġs on
al ity
et h
ĠO l
Ġab le
Ġco ast
Ġpolit ical
ĠH igh
ri es
ress ed
Ġcharac ters
ĠS ec
Ġst e
in al
Ġg et
ĠH am
Ġother s
Ġconst ruction
Ġc ert
Ġb ird
Ġp red
Ġprom ot
as es
Ġbatt le
b r
ĠT own
Ġn ational
way s
ac y
Ġocc ur
om ing
Ġv al
ĠâĢ Ļ
Ġf ig
ĠS w
amp le
Ġl ik
am ent
Ġon ce
ĠH ist
pl ay
fic ult
Ġf ac
Ġrem ained
p or
ĠC are
ĠB ra
Ġloc ated
Ġm ount
Ġtrad ition
ent h
iv id
Ġro ck
Ġsc ored
Ġwork s
Ġdif ficult
ĠKing dom
c raft
Ġre du
Ġ3 1
Ġprodu c
lect ed
ĠIs land
Ġcamp aign
Ġgun s
Ġt re
Ġc ross
ĠC up
ĠM on
Ġst ars
ĠG rand
Ġme et
Ġcomple ted
ĠAustral ian
Ġannoun ced
Ġr ank
Ġreg ion
Ġh old
et t
Ġs qu
or se
Ġn uc
oun c
o ff
it ted
Ġg row
Ġsu per
Ġcol le
Ġgo al
ĠComp any
i que
o id
Ġf av
ar ch
Ġl ittle
Ġcon n
um b
Ġle t
Ġproc ess
r ay
en ced
Ġf ight
Ġf ront
al y
om p
rough t
Ġinst ead
ĠA ct
k y
Ġc irc
Ġ2 9
Ġadd ed
he re
le et
ĠM or
Ġcon d
om m
Ġle ast
du ct
Ġfollow ed
ĠB ill
Ġkn ow
Ġpe ak
Ġappe ared
Ġb orn
Ġkill ed
Ġs outhern
ang u
Ġorigin ally
Ġmonth s
o ice
Ġw ife
ur b
Ġcom ment
ĠAr my
Ġst ri
ĠDav id
m ar
Ġf if
Ġm other
Ġl oss
ot a
Ġ4 0
Ġstud y
i us
Ġh urricane
Ġass oci
Ġw omen
Ġc ell
ect s
ĠMus ic
Ġ ident
Ġm ass
st on
Ġe astern
Ġn on
Ġse x
ant ry
Ġag re
Ġrelations hip
Ġa ud
Ġa ward
Ġ200 3
Ġcrit ics
Ġbro ad
yc l
Ġan im
Ġ18 5
Ġevent ually
Ġfeat ures
Ġprof ess
ol ution
ĠG od
ĠO ther
Ġv oc
Ġy oung
ap er
Ġrec ogn
Ġ201 5
g in
at a
Ġb us
Ġl ive
em ents
ul ly
ĠFran ce
Ġa ver
Ġfour th
Ġt aken
ĠS er
em y
Ġro ute
Ġest im
c her
ĠT wo
ĠB er
Ġser ved
l iam
o res
ist ic
as k
Ġcom mer
Ġpro te
ill a
Ġapp oint
ograph y
z e
ĠC o
om es
Ġl ack
ch ie
Ġdec ided
Ġdam age
am a
ĠM ad
un k
Ġhe avy
ign ed
az ine
Ġc or
Ġb ase
Ġe ither
ĠI m
ĠBatt alion
i ation
Ġf ar
Ġcon dom
Ġpro ble
Ġse par
Ġar m
Ġimp ro
Ġins p
v al
ĠP art
ough t
Ġspec ial
Ġbeh ind
ĠRober t
Ġto get
ic a
ec ut
ĠL ove
Ġcol l
Ġind ivid
Ġbelie ved
Ġtoget her
id a
Ġar g
Ġqu ar
enc y
liam ent
i pp
av es
Ġcl os
ict ion
ounc il
c ial
Ġm ater
ric t
Ġplay ing
ĠRoy al
ĠCare y
Ġb urn
Ġd ou
ĠR ed
ra p
ach ing
i ol
i ber
ĠM ed
Ġmov e
Ġ ir
Ġ round
Ġc reat
Ġb i
Ġl angu
ĠH en
ĠD u
Ġv ol
Ġde v
Ġex ample
Ġcl ose
Ġac cept
ĠMe x
g g
ĠS ome
ĠM in
Ġal most
Ġ18 8
al t
est s
Ġserv ice
Ġlead ing
ĠEurope an
Ġs our
Ġf all
ĠR ep
od es
ĠWh ite
Ġgener ally
ĠFeder er
Ġs aw
at ors
Ġc e
Ġto wards
Ġopen ed
Ġele ments
e al
Ġm iss
Ġ3 5
u ter
or ing
Ġb rought
ĠBr igade
Ġgener al
Ġweek s
Ġm ot
ĠP res
ce ed
ĠW ales
ĠG ame
ĠIn ternational
Ġfin ished
Ġdra w
Ġ z
st it
Ġl aun
ĠFl or
Ġw all
Ġh ost
op h
ĠK h
ĠV iet
Ġreg ular
Ġhigh way
Ġfeat ured
c ast
ĠI r
Ġcent ral
Ġair craft
le ment
ir l
end ing
Ġind ust
b oard
ĠE ast
ord an
oun ter
Ġres ear
Ġre b
et work
Ġcont ract
Ġpoint s
e um
Ġf und
Ġin form
Ġdirect ed
Ġ -
Ġa ction
Ġm i
ĠM o
ort s
Ġsu ff
ĠCh ampionship
Ġme as
Ġdirect or
Ġprov ided
h ing
Ġc ut
ic ated
Ġre n
ĠB o
ĠF ollow
ud e
wo od
Ġfl ood
Ġresp ect
Ġn ar
ĠJ ordan
Ġse qu
Ġup on
Ġme an
ent ial
ĠF rom
ĠG al
Ġappear ance
n ed
ĠJ ew
Ġy ard
ell ow
Ġ18 6
Ġearl ier
s el
y ing
at in
ĠP e
ĠR ock
ĠE m
Ġk ing
Ġc ost
ĠC r
Ġr ather
ight s
Ġ201 4
Ġsub sequ
Ġfem ale
ĠAtl antic
Ġtro ops
t t
Ġ Ã
Ġ ill
Ġre ve
Ġst ru
ĠO d
ish ing
med i
ĠChrist ian
Ġcur rent
ĠM ary
ĠO p
Ġv e
Ġr iver
Ġlar gest
Ġtra vel
Ġvict ory
ĠFollow ing
ĠH ouse
and er
Ġem ploy
Ġoper ations
ĠHer o
Ġparticular ly
ĠGeor ge
Ġmanag er
Ġa chie
er ous
ou ri
Ġpro b
u le
Ġfor t
Ġopen ing
Ġwant ed
v ing
Ġc op
Ġb ur
Ġ5 00
eng th
Ġnort hern
a ult
ĠM ac
id s
os ition
Ġex ist
Ġy ards
Ġev idence
ĠPl ay
á ĥ
it a
Ġf oc
Ġre ason
ĠS l
el er
Ġcon duct
ĠPh il
ĠFlor ida
e e
i h
o f
y d
he ad
Ġm ember
ĠW al
ren g
Ġpr act
uc k
v est
Ġs aying
om s
ĠB ay
ĠW il
and ing
ĠSt reet
Ġout side
Ġcre w
Ġallow ed
Ġposs ible
Ġeng ine
c o
w est
at ural
ĠM ost
ĠP aul
Ġacc ount
ĠOl iv
u el
Ġp ast
Ġm er
ĠM ark
ir th
Ġst age
Ġne g
ĠMc C
Ġh ours
Ġwh om
Ġresp ons
con om
Ġc ase
ing ton
ag o
art ment
ĠMiss ouri
Ġmater ial
b or
ill s
Ġ200 1
Ġdes p
Ġwork ed
Ġreg ard
Ġf ree
Ġm ach
Ġl ength
Ġn ec
ĠB ut
Ġg re
Ġst reng
Ġob ject
Ġter rit
ĠT ech
Ġg old
Ġpl ann
ap s
Ġwork ing
Ġn omin
ver t
em s
l us
v ille
ar ies
ĠS an
Ġl ove
Ġr ul
Ġpo or
Ġqu ick
Ġdesign ed
c ent
n ow
u k
ar i
ĠV ir
ĠQ u
Ġfoot ball
on st
Ġm ult
Ġh on
ur t
ĠB us
Ġle arn
ĠInd ian
Ġconst ruct
Ġpra ised
p s
Ġ esc
Ġt reat
ĠT or
ĠB est
Ġfor ced
Ġst ation
ĠD ay
ĠF irst
ess ion
Ġrem ains
Ġav ail
r ated
it es
id ing
Ġv iol
ĠV al
Ġ18 7
Ġgo als
Ġ197 0
ĠMich ael
u ation
Ġth ink
gy pt
Ġwind s
he ast
Ġc ivil
ĠS m
ĠS qu
Ġab ove
Ġdis s
Ġinv est
Ġincre ased
Ġp ers
ĠH el
ĠF e
ĠE gypt
hen s
Ġprevious ly
ĠÂ £
w h
it z
ĠD esp
ul a
pp er
ĠTh om
Ġso on
Ġrepl aced
Ġcommer cial
as ion
rib uted
ĠRich ard
B C
g l
er ved
Ġm ust
ĠA c
ĠA g
ĠA pp
Ġas k
ĠG r
Ġinter view
Ġmain t
ĠSu per
Ġbus iness
on c
Ġc lear
Ġp ain
st e
ol ic
ĠW he
ri ption
ĠDesp ite
ĠC orp
Ġl y
ĠD ep
os ing
ab it
Ġwrit er
ĠQ ue
ĠBro wn
Ġquar ter
m ing
Ġt rib
Ġth reat
ĠM ont
Ġ200 0
Ġun c
ĠÂ °
ĠHen ry
A F
at ory
an ia
Ġm ph
ĠO s
Ġun its
one y
ĠCanad a
Ġestim ated
Ã ³
Ġp en
ul f
if f
ak er
ib ility
Ġ199 0
Ġspec ific
Ġcour t
ĠOld ham
f ace
Ġp ur
Ġre act
ac ing
Ġ3 6
Ġclaim ed
ĠJapan ese
Ġjo ined
Ġhig hest
b and
m en
ĠT imes
ul ated
ch ing
Ġpl aced
Ġcont r
ĠCar ol
Ġinvol ved
ecut ive
ĠPres ident
f or
Ġw estern
Ġf ly
ĠS un
ĠG overn
Ġpr iv
Ġsign ed
Ġsuggest ed
le g
ĠM os
ell ed
Ġ4 5
Ġ18 3
Ġpart s
Ġsy n
ĠC ard
ĠM y
ĠG old
Ġint ens
ĠInd ia
ĠOliv ier
Ġt ru
Ġh ous
ĠS chool
th let
ĠL ater
Ġpro per
Ġch ange
Ġle ague
Ġits elf
ĠViet n
m b
Ġ esp
Ġin j
Ġd on
ĠC ong
ĠH all
Ġsh ot
Ġra p
ann a
Ġaver age
ĠMex ico
ĠIr ish
Ġt aking
Ġh ard
ĠN ot
um e
Ġavail able
Ġe y
ur g
Ġex cept
Ġsc ene
ron ic
Ġtrans port
Ġtrans fer
Ġbro ther
Ġbre ak
read y
Ġintrodu ced
Ġh it
ĠP ac
Ġwh ose
Ġhe av
Ġrecord ing
Ġvill age
Ġw ood
Ġst op
Ġr ace
ĠSt ar
ĠV ar
Ġsub ject
Ġra il
por ary
ĠThom as
g o
r d
x imately
Ġs low
Ġ6 0
Ġph ys
Ġgr ad
Ġrelig ious
Ġf r
Ġm em
Ġn etwork
ac hel
Ġg ra
Ġed uc
Ġto ld
Ġn ine
Ġn ames
ĠN Y
Ġab s
Ġrem ov
ĠBrit ain
Ġshow s
Ġ196 0
Ġdam aged
i qu
Ġt est
Ġc ru
ar ily
Ġp iec
Ġind epend
ĠSc ient
Ġincre asing
Ġturn ed
Ġcap ital
Ġsoc ial
ĠRep ublic
g u
Ġa p
or ation
Ġc al
en es
Ġl ines
Ġg ive
ĠH urricane
ĠP o
ĠG reat
Ġch ap
ĠTh at
ĠGu itar
Ġstruct ure
al ed
ĠM any
ĠAn t
Ġfe el
Ġnear ly
Ġdet erm
Ġappoint ed
Ġdesp ite
Ġs ize
Ġc ycl
od ies
ĠUn ion
ĠZ eal
Ġcomple t
Ġcommun ity
h ib
Ġ ?
Ġb ill
Ġin ternational
Ġd en
Ġd ate
Ġl iter
Ġe conom
ĠL a
ate g
ran g
Ġ18 4
ĠAr t
Ġsur round
Ġpass ed
Ġf ut
Ġm ight
ou l
ec ially
ir t
Ġwith d
ri an
ber t
hed ral
Ġsc ore
Ġim medi
ines e
Ġocc up
Ġestab lish
Ġdeb ut
Ġinit ially
osaur us
Ġcert ain
l ict
Ġw inning
Ġc as
Ġp ot
Ġto w
ĠM a
Ġal ready
ĠE ver
Ġde al
Ġdis p
Ġass ist
Ġgo ing
Ġpartic ip
Ġarch ae
ĠPac ific
Ġf ailed
ic ation
Ġst ates
ĠCh inese
ĠEar ly
ĠZeal and
f ect
h a
i res
Ġm ale
Ġd oc
ĠD on
ra g
ĠJ in
ab ility
Ġacc ording
Ġra in
Ġtra ining
Ġfore st
Ġlangu age
Ġprob ably
Ġesp ecially
d en
Ġf ood
ĠS ing
ĠC ath
ĠD r
Ġk ey
Ġ200 2
ific ation
Ġdep ict
Ġmin or
Ġiss ue
n el
Ġa ut
Ġd augh
ĠP ri
ĠF ilm
ĠL aw
Ġstud io
ĠII I
ĠT om
ad y
Ġfor ward
ĠP eter
Ġsp ent
Ġinclud es
fer ence
Ġarr ived
Ġord ered
ĠHist ory
ĠWhe eler
a ut
s hip
is es
ĠA wards
ĠS ch
il ities
av al
Ġar my
Ġen ough
Ġrem aining
Ġbl ock
Ġvis it
ĠCanad ian
ĠAng el
ste in
t ies
on se
Ġf ail
Ġd ro
ĠN avy
Ġsomet imes
Ġmix ed
b ack
l or
z z
Ġd i
ĠT er
ĠS oc
ow l
ĠR ose
Ġcom e
ĠU K
Ġcomple te
Ġappro ximately
Ġreview s
Ġrequ ired
ĠAss oci
or ial
Ġto uch
ĠC reek
Ġl ower
Ġl atter
qu ar
ran ch
ric s
Ġim m
Ġcent er
t o
ĠM er
ĠM et
ly mp
ĠP enn
ĠIn f
Ġrem ain
Ġbeg inning
ĠAfric a
d own
in ct
in ist
st ant
ĠH ol
ĠO lymp
ĠVir gin
Ġs em
Ġw oman
et ic
ĠSt ud
Ġj ourn
Ġdec ision
Ġprev ent
Ġlim ited
i est
r ack
u nder
Ġh app
Ġde ad
Ġ3 8
Ġus ually
Ġbet ter
Ġstud ents
Ġaddition al
Ġchang es
ĠReg iment
ed y
Ġst ay
ĠR out
ĠR achel
ĠN ort
ĠJ e
ab y
Ġpres ident
Ġem b
Ġrun ning
Ġresp onse
Ġs ch
ad ron
Ġend ed
Ġpos itive
Ġlar ger
ĠSc ott
Ġconc ern
g ar
er at
Ġm ention
ĠT V
ĠA ward
Ġ8 0
Ġqu est
Ġsupport ed
Ġtyp e
Ġmag azine
i os
u als
ĠF ort
ĠJ er
Ġnot es
Ġdep ression
Ġpol ice
ĠChar les
Ġpress ure
Ġpri or
o or
re ak
Ġw ide
Ġb irth
ent y
Ġcomp l
Ġam ount
Ġbird s
Ġsh own
Ġ199 5
Ġrel ated
ĠBill board
Ġf ace
um ents
Ġ7 5
Ġfeat ure
rie f
Ġfif th
Ġfut ure
r at
ar ing
ĠH ot
ĠU nder
Ġapp l
Ġ198 0
Ġprov ide
Ġdefe ated
c om
Ġc he
an i
Ġd er
il s
ĠC amp
ĠH ill
Ġst aff
Ġan c
art s
Ġdiscover ed
b ers
Ġs at
Ġs il
Ġs ection
ĠS y
ĠP at
ĠR es
ĠO per
if a
Ġtem per
ĠRout e
h ou
n ey
Ġc m
en on
Ġd oll
ĠB el
ĠF I
ĠW estern
ri age
ish op
Ġbec oming
ĠFran k
Ġfre qu
g ely
o o
ed ing
Ġw ord
ra el
ĠL ight
ĠCol le
ĠA rab
ĠR h
ĠW ood
and s
Ġv ot
Ġex am
ect or
ok e
ke y
oy s
Ġsmall er
u f
it te
Ġf low
Ġd omin
ĠT ur
id ents
un t
ra w
Ġint ended
Ġper cent
Ġsc reen
Ġcol on
Ġgroup s
Ġide a
ĠScient ology
w ell
in ent
Ġf ir
Ġf leet
as y
if orn
ĠY ear
Ġthem sel
Ġmost ly
Ġmet res
Ġconc lud
Ġdisc uss
ĠHa ifa
Ġrad io
Ġprofess ional
Ġthemsel ves
g en
s es
er a
an ies
ĠR uss
pl es
Ġ201 6
Ġmus ical
Ġsur face
Ġmin utes
Ġcapt ured
Ġrefer red
ĠCro at
Ġlik ely
u ing
an ish
ĠS ince
ĠM il
im ate
ce an
ĠO ver
ian o
Ġoff ice
Ġlar gely
ĠPar liament
Ġproble ms
ĠAssoci ation
r or
Ġt ry
Ġl ab
Ġl ink
ĠH ow
ra in
ĠU p
Ġu nd
Ġcont em
Ġind ic
Ġent ered
Ġmed ia
ĠPort ug
Ġsum mer
quar ters
is er
is ions
Ġm akes
ĠS ov
ĠN ic
ĠO tt
Ġsh oot
ĠV er
Ġen s
orn ing
Ġmov ing
ĠIs rael
ĠEar th
Ġobs erv
Ġbroad cast
Ġs elf
Ġp air
Ġcont ains
ĠCal iforn
Ġke ep
Ġconstruct ed
s en
Ġin n
Ġm oney
le x
ĠS am
ĠC ouncil
ĠB ey
Ġcon cept
Ġv oice
ĠIn ter
Ġse a
Ġ199 9
Ġp aren
ĠS ur
Ġn ature
iv a
ĠH aw
ĠR oss
ru it
Ġad op
yl v
Ġgu itar
Ġeffect s
Ġce le
ĠGal vest
ĠGalvest on
k an
er gy
Ġst ories
ĠCh ic
ony m
Ġ195 0
Ġgr ant
Ġmajor ity
Ġlist ed
Ġrank ed
ĠJew ish
he t
Ġcons ist
Ġcre ate
hest er
Ġexper ience
Ġresear ch
m a
Ġc le
ur ity
Ġle aving
Ġun s
Ġ7 0
Ġmet h
ĠBr ad
Ġcrit ical
Ġfav or
Ġsch ol
Ġb rief
Ġth us
ĠM art
ow ler
av en
Ġ3 3
ous ly
Ġsc ript
Ġear th
Ġcontro ll
Ġprim ary
erat ops
p ool
r ison
ou d
ĠS erv
Ġl ived
Ġal ways
ers hip
Ġde ep
ĠAn other
Ġunder st
Ġfilm s
Ġloc ation
ank s
Ġrun s
Ġoffic ers
Ġgod s
Ġagre ed
Ġly rics
Ġ ri
at ively
ch ange
te en
Ġra re
osp ital
Ġlaun ched
ĠCaliforn ia
d le
Ġc ounter
Ġd ed
ac hes
ĠP et
ill ery
ord er
land s
Ġatt ract
Ġpre m
Ġteam s
Ġmin ute
Ġcult ure
Ġquick ly
ĠCath olic
a wn
r as
Ġ x
Ġf ans
ĠM r
ĠI f
ĠF ore
ĠF orm
Ġme ant
Ġam b
Ġepis odes
Ġprop osed
Ġoccur red
ĠChic ago
l o
o ir
ĠS aint
Ġl o
im um
Ġwhe ther
Ġad apt
Ġ4 00
Ġass igned
Ġacc ess
Ġincre ase
A S
Ġc red
Ġd ram
Ġh op
ĠT re
ĠB ec
ĠL atin
um n
Ġ3 2
Ġpo et
Ġcan n
Ġprodu ct
Ġform s
Ġtra ffic
Ġappear s
Ġdefe at
Ġchang ed
Ġdestroy ed
i ant
Ġt ons
Ġl og
ĠB en
Ġas p
ĠN ix
Ġcomm ission
Ġtr ade
ĠEn ter
ĠAr ch
Ġlong er
ĠBatt le
ĠCent ral
Ġmean ing
m as
on ed
Ġb ound
an ced
ro l
Ġm om
ĠS ever
ĠC amb
ĠM ey
ĠH o
ort un
Ġr an
ĠAl ice
Ġj ob
Ġthem e
Ġnum bers
Ġpr inc
ĠSc ot
Ġ194 0
und red
Ġsold iers
Ġcompet ition
Ġnuc le
Ã³ n
e x
Ġb omb
Ġre ach
Ġg irl
th ing
ĠD j
Ġk il
Ġle ave
ĠIt al
Ġnew sp
Ġac qu
Ġcar ried
ĠTe x
Ġaward ed
Ġfoc us
ĠNort hern
t ar
Ġ3 00
Ġ199 8
Ġconc ert
Ġconsid er
Ġconduct ed
Ġpriv ate
Ġdaugh ter
N A
en ing
an as
ro wn
ĠT w
Ġn atural
ow s
ĠJ am
Ġover all
Ġen v
Ġ9 0
Ġrecord s
ĠSec ond
Ġsubsequ ently
c ing
it ation
Ġc ause
Ġto urn
ĠT ra
Ġth ick
Ġe mer
ĠB C
im in
us band
ĠD el
ĠL iver
Ġde g
Ġpl ans
ĠV illa
ĠAl kan
Ġdis m
Ġ193 0
Ġant i
Ġfight ing
b ar
g a
l in
Ġ ult
Ġt akes
Ġs us
ed s
it or
it ude
Ġb ox
Ġre in
Ġl ay
Ġg raph
Ġk ind
ect ive
Ġwho le
Ġ199 3
Ġele ction
ĠPol ish
Ġinflu ence
Ġcomment ed
Ġdou ble
Ġindust ry
k en
Ġ +
ĠT ay
ĠT our
ĠM inn
Ġser ious
Ġfin ally
Ġbr ing
Ġask ed
ĠNix on
ĠLiver pool
Ġt ar
Ġd ig
Ġth row
all ed
Ġu pper
Ġcomp ared
ĠIt s
Ġj ud
Ġcent re
Ġend ing
ĠGeor g
ĠSom ers
stit ute
Ġgre ater
Ġmeth od
n y
Ġp urch
Ġd one
Ġre ject
ĠM al
ĠB ack
ol k
ĠL ady
ist ics
ell s
Ġun able
Ġ4 7
Ġfl ight
olog ist
Ġpos itions
Ġacc omp
itt ing
Ġmar ried
itte e
ĠTex as
I I
g ing
Ġo ur
Ġb ig
al ys
ĠH um
ĠF oot
Ġ3 9
ail y
Ġbuild ings
Ġperson al
Ġmark et
Ġstand ard
ĠMos ley
Ġrap id
ĠSomers et
ĠT ropical
ĠS ol
Ġg ot
ĠR ob
ag on
Ġy et
ĠV ict
Ġpart y
Ġear ned
Ġbook s
T V
Ġm or
Ġd ark
ĠT enn
ĠC our
Ġl iving
Ġhe ro
ĠO ut
ĠTh ree
Ġ199 6
Ġcol lect
Ġph ot
Ġconf lict
Ġbeg ins
Ġiss ued
ĠBus ch
c ar
Ġm ur
Ġd om
ĠS al
ad a
ĠB ob
ĠF in
ĠL ake
ri a
Ġdirect ly
Ġmark ed
Ġterm s
augh t
Ġtradition al
h ouse
Ġs al
um ed
Ġhe alth
Ġab and
Ġsc enes
ath an
Ġmov ement
ĠSp anish
ĠChrist mas
Ġmar riage
Ġstat us
ĠAfric an
ĠTay lor
re y
Ġp ath
ĠF owler
ber y
ĠComm and
Ġsl ight
Ġhelp ed
Ġfig ure
ĠSever al
r ical
it ch
Ġb atter
Ġp il
ĠC ross
Ġn orm
ad m
ad ed
ĠD em
ĠL ou
od on
ew ay
ĠSt orm
Ġsc hed
emb ly
Ġstart ing
Ġattack s
Ġschool s
Ġexper i
Ġinform ation
Ġsuff ered
Ġplann ed
b ury
an z
Ġh usband
Ġl if
ĠI ll
Ġg iving
ĠN or
ĠJ ust
Ġr h
Ġperform ances
Ġassoci ated
Ġinsp ired
Ġsour ce
ĠInf antry
ĠSov iet
i en
Ġd ivision
ce nd
ĠJ ane
if y
Ġpl ot
Ġcl osed
ound s
ib ly
Ġtrans l
ĠCon t
Ġpresent ed
Ġinit ial
Ġcondom s
ĠPart y
Ġmach ine
t ation
at re
ic an
ĠT rans
im b
ĠG o
Ġv ia
ĠIn n
Ġro om
Ġim age
Ġra ised
Ġpres ence
Ġpol ic
Ġgreat est
ĠSer ies
Ġeduc ation
a res
l ike
s ylv
u ff
er ve
Ġf ell
Ġin ters
Ġp ay
Ġh undred
ĠT em
ĠS ix
ĠC ast
ol f
ĠL ong
Ġch all
ect ions
Ġun it
Ġus es
Ġ4 2
Ġwrit ers
Ġcontin ue
Ġnear by
ĠCl ub
ĠPar is
orp or
ĠCarol ina
Ġdoc ument
ĠPenn sylv
ĠVirgin ia
Ġsus p
i ated
r ate
Ġp ark
ĠR am
ĠL ive
Ġpre p
iam i
Ġcomple x
Ġcover ed
Ã¡ n
Ġcolle ction
Ġcycl one
r id
Ġt alk
it ect
Ġh abit
ĠM ill
im ony
Ġcon ver
ess a
Ġsp ace
Ġcomp osed
Ġen j
Ġwe ap
inn er
Ġann ual
Ġserv ices
ĠAc ad
ĠQue en
ĠColle ge
ĠMey er
in y
Ġb odies
Ġre ally
et her
ĠW ater
Ġse v
Ġ199 7
Ġnum erous
Ġmet al
Ġext ended
Ġcommand er
Ġcat hedral
Ġwat ers
Ġfig ures
Ġproduc er
Ġterrit ory
onc Ã©
ĠBey oncÃ©
e en
t ain
Ġh ot
Ġth ings
ĠM iami
ur ies
ĠD an
ĠD am
ĠL o
ĠJ ose
ant a
pt ed
port s
ĠGerman y
ĠMus eum
Ġsomet hing
Ġvoc als
Ġprote ins
Ġindivid ual
p ed
z y
ĠThe ir
ĠG ames
ĠN ations
ip al
Ġ4 4
Ġfin anc
Ġart ist
Ġoper ation
rick et
Ġnec ess
Ġinvest ig
e v
u it
Ġt ax
Ġs af
Ġp ick
Ġm orning
est ival
ĠE r
ap o
Ġcomp anies
ĠTh rough
Ġhigh ly
Ġimp act
Ġattack ed
Ġdet ail
Ġattempt s
Ġrequ est
ĠSom al
Ġstreng th
ĠServ ice
d ing
p ole
v ement
Ġb ad
ĠC er
ĠC rit
om er
ad o
ad ium
ĠG ar
Ġrec over
Ġdis e
rib ution
Ġver s
Ġinter act
Ġsy mb
Ġart illery
Ġconf ir
Ġspe ed
Ġer a
Ġimmedi ately
adm ium
ĠPennsylv ania
t rack
at ives
is ation
is her
Ġp urs
Ġp iano
ĠA I
ĠC ons
ĠM ajor
Ġst one
ĠL i
Ġpl at
Ġsp ir
Ġdist ance
Ġallow ing
Ġtrack s
Ġpower ful
Ġsit uation
ĠJack son
Ġnuc lear
ĠSqu adron
Ġremov ed
Ġcele br
Ġkil omet
h ic
on na
Ġin tern
and id
ag ing
Ġr ate
Ġse lected
Ġse arch
Ġk ick
ip le
Ġ5 1
Ġoff ered
Ġsec ret
Ġbl ood
Ġstud ies
Ġins ide
Ġadv ance
Ġvar iety
Ġfriend s
Ġneed ed
Ġpeak ed
Ġsex ual
Ġpur p
ĠScot land
ĠVict or
Ġm ole
ou ra
ĠS ir
Ġn ative
ĠB et
ĠB oth
Ġst ra
ĠR ad
ĠL os
ri al
Ġ18 2
iz ing
Ġpre c
Ġte xt
Ġ199 1
Ġme ans
Ġco ach
ĠChr is
Ġcount ries
Ġhead quarters
Ġattempt ed
Ġcop ies
ĠFoot ball
ã ĥ
im s
ĠL and
Ġr ule
ĠCh ina
Ġsc oring
Ġadv ant
Ġhand s
Ġwid ely
Ġrespect ively
ĠOp en
Ġrespons ible
Ġcas ual
a en
h ood
w are
al ty
Ġm ax
Ġh ar
ĠA lex
Ġg rand
Ġan g
se nd
ann el
Ġset s
Ġext rem
Ġdescrib es
Ġappear ances
Ġcontro vers
ĠAnd erson
Ġgen us
Ġhig her
ĠDep artment
Ġtouch down
he w
ĠA re
ir on
ĠP ost
ĠO ff
ap ed
end s
Ġcan c
Ġ199 2
Ġland s
Ġconst it
Ġcour se
Ġmid dle
Ġmag n
Ġobs erved
ĠBra at
ĠCorp s
Ġheav ily
M S
m e
v in
Ġ ess
ĠT ime
ĠB re
ĠN es
ill ed
Ġse em
ell ig
Ġcomp os
ran e
Ġad ult
Ġdis play
Ġ199 4
Ġrel ief
ĠRe v
Ġbel ow
Ġsix th
sh ire
Ġadm inist
Ġredu ced
Ġmeet ing
Ġx enon
Ġenj oy
l ight
es ota
ĠM idd
ul ations
ĠL ike
um ber
Ġ3 7
Ġ4 8
Ġj ump
Ġ7 6
Ġact ive
Ġbl ue
Ġsing er
Ġmat ches
Ġresult ed
Ġopp ortun
Ġaud ience
for ce
Ġconclud ed
ĠMinn esota
u ated
Ġw ing
Ġc orn
is k
Ġp aper
Ġh ol
Ġh our
ĠC or
ĠC apt
ĠP it
ĠE mp
ak apo
ran ce
Ġshe ll
Ġinst it
ink el
Ġactiv ity
Ġactiv ities
ĠSm ith
Ġtru e
Ġcomplet ely
r is
Ġc er
is l
Ġb ene
Ġp u
ro om
ĠS outhern
ĠB ol
Ġst ating
ut ch
ĠG reen
ĠJ ul
Ġdis app
Ġman aged
ath us
ĠSe a
ĠCent er
ĠTown send
Ġreve aled
ĠRose bery
Ġquest ion
Ġcontem porary
ĠHaw ai
ĠItal ian
ĠMeyer be
i pped
ã ģ
Ġw ound
ĠD ist
ĠF ur
ĠJ im
if t
ĠK a
Ġqu ality
erv ation
Ġref used
Ġdr um
Ġlevel s
Äģ d
Ġdecl ared
Ġtre es
Ġsepar ate
ĠNic ole
ĠMeyerbe er
b ed
b ird
Ġp un
ac her
ĠF inkel
ect ing
ĠTh under
row d
ĠCon f
Ġbro wn
ĠFor ce
Ġappro ach
ĠWal pole
Ġcontr ast
ĠBec ause
ĠFinkel stein
ing u
Ġto day
Ġd u
ĠT essa
st one
ĠC at
Ġl ot
ĠD o
est ic
Ġun iversity
per or
Ġrec ent
ĠY ue
Ġwe bs
ĠSh iva
Ġback ground
Ġrece ption
Ġ15 0
Ġfeat uring
Ġresp ond
Ġcar ry
Ġmod el
Ġtyp ically
Ġhistor ical
Ġvoc al
Ġparen ts
g al
h old
Ġw alk
it ual
Ġc hem
Ġp ow
ro ad
Ġh air
ĠS ar
Ġn ation
ĠP re
Ġbe at
ĠW ild
Ġ5 2
Ġdis pl
Ġplay s
ang er
ors hip
Ġact ions
Ġpe ace
Ġexp ected
Ġem ot
ah a
ĠBl ue
Ġiss ues
ĠChar l
Ġcond itions
Ġve hic
ĠSoc iety
ĠOtt oman
ĠIll ino
F A
k a
Ġin h
Ġre ar
il ed
ĠB alt
ĠH al
ĠR o
og ue
Ġro y
Ġbec omes
Ġatt ention
Ġwe aken
Ġass ault
Ġmain ly
Ġfam il
Ġeff orts
ĠSp ec
aren t
Ġhous es
e ption
Ġw ear
Ġm el
Ġd raft
ĠT urn
ĠA v
us ion
ĠD es
ĠO m
ess ions
Ġ3 4
Ġres idents
Ġoff er
ock s
Ġspec im
yp e
Ġinst r
ĠAd am
ĠFran c
ĠHigh way
Ġstru gg
ĠCour t
ĠBraat hens
B A
b on
Ġa thlet
Ġs ense
ĠT od
ĠB urn
em ic
os es
oc r
Ġrec omm
ĠAr g
Ġact ually
Ġcall ing
Ġele v
Ġtit les
Ġdem onst
ĠHa it
Ġsound track
Ġprote in
uf act
on ents
Ġs n
ed o
Ġc rowd
en ge
Ġb oard
Ġth ous
Ġal tern
ĠL ittle
Ġro les
Ġpo ly
Ġseason s
Ġwrit e
Ġdef end
led ge
ĠJohn son
ĠCol umb
ĠDe f
Ġarch itect
Ġaccept ed
Ġstru ck
Ġachie ved
ĠGovern ment
ĠPortug ues
Ġcann ot
c ript
i ro
p ly
Ġf ruit
an es
ic ations
Ġth r
Ġn in
ĠM og
ut ions
ĠF am
ĠF ey
ĠO f
pp ing
ber g
ip l
Ġres c
Ġsc ient
ens ion
Ġtyp es
Ġpract ice
ĠVietn am
alys is
ĠPortugues e
w en
Ġ rough
Ġc am
Ġf iction
ro ll
Ġd yn
Ġl b
ĠM at
and ed
ell er
ire ction
Ġ18 1
Ġsc ul
ann ing
Ġdist inct
Ġinf antry
ĠSp ain
ĠAd d
ech an
Ġav oid
Ġprim arily
ĠSec ret
Ġsequ ence
ĠAcad emy
Ġs ales
ĠT int
il es
ĠC ivil
ĠB ook
ĠF er
ĠG roup
Ġpl ant
Ġsp read
ĠY oung
ĠEng ine
Ġ198 6
Ġown ed
Ġtw enty
Ġelect ed
Ġcomb at
Ġslight ly
m et
Ġs ister
ĠS arn
ĠH orse
us e
ĠW els
Ġhe art
ĠE s
Ġsu c
Ġsu st
Ġsp ort
og rap
Ġinc hes
Ġsc ale
Ġoff ensive
ĠAn n
Ġexp ressed
Ġconc ent
Ġext ra
Ġcount y
ĠPr ince
Ġright s
Ġnort heast
Ġaff ected
ceed ed
onym ous
ĠLou is
ĠCapt ain
A A
r ight
Ġs out
Ġw ords
or a
Ġf arm
Ġp le
Ġm is
ĠT ri
ĠC he
ol s
us hed
ĠD ou
Ġ18 0
Ġne igh
ĠAt t
ĠRe view
Ġshow ed
Ġoffic er
Ġprog ress
ĠNes b
ĠTint in
ĠWels h
m ond
m itted
or us
Ġh y
ĠS il
ĠM anc
ig g
ig an
ast ic
Ġab ility
ĠTh ough
Ġthem es
ĠZ hou
ĠAd m
Ġbatt alion
ĠAnd rew
Ġexc av
Ġcomb ined
ĠVar anas
Ġnewsp aper
ĠCer es
iron ment
ĠEmp ire
ĠVaranas i
ã Ĥ
re ct
Ġm ess
Ġh orse
ĠF red
ov ic
Ġqu al
ĠComm un
Ġtit led
Ġport ray
Ġcult ural
Ġsqu are
ĠOd aen
ĠApp le
Ġcasual ties
ĠNesb itt
Ġs ays
Ġo x
ĠT ru
Ġre ign
ĠW ay
ain e
Ġ4 9
Ġrem ark
Ġprodu ce
Ġcontin ues
Ġgr ass
ĠEv a
Ġearl iest
Ġmount ain
wh ile
ĠAngel es
Ġmention ed
Ġanc ient
Ġmur der
Ġcer em
ĠIllino is
ĠOdaen athus
M ont
l aim
n own
in us
en ant
Ġf ully
Ġm ission
ent ed
ĠC ra
ĠB oy
et ts
ĠD irect
ĠW ash
os en
ĠJ os
op er
Ġch ampionship
Ġman ufact
Ġact or
Ġpr int
Ġart ists
Ġresult ing
orp edo
Ġ192 0
ĠRec ords
Ġauthor ities
Ġinflu enced
ĠDu Mont
Ġflood ing
Ġnar row
ĠOlymp ic
Ġadop ted
Ġdise ase
Ġadvant age
ĠMog ad
ĠSarn ia
Ġw ild
ĠC ap
Ġn est
ur a
Ġsp l
Ġ6 5
ĠCol on
ĠPro t
Ġreport s
Ġleg al
Ġbas is
ĠPer Ã³n
Ġrepresent ed
l ies
l ings
m ark
Ã ¨
Ġs ides
Ġc andid
Ġb ott
as c
Ġto ward
Ġm ile
ĠP op
Ġal one
ĠN C
Ġcom ing
Ġex hib
ell a
Ġapp arent
Ġag g
ĠNew s
Ġdef ense
Ġbr idge
hel m
Ġbeg in
Ġview ers
ĠWe ek
Ġlet ters
Ġwithd raw
Ġtow er
Ġtourn ament
ĠMidd le
ĠThunder bird
ĠManc hester
b it
w rit
Ġt orpedo
Ġd irection
Ġh un
ĠS R
ĠH ome
ĠH orn
ĠF our
ĠL ar
ĠO cean
Ġr at
Ġk akapo
Ġy ellow
Ġar med
Ġwork ers
Ġrel atively
Ġfound ed
Ġalong side
Ġocc asion
Ġeff ort
ĠCl ark
Ġnorth west
anc y
Ġill ust
ĠWash ington
a ith
b our
l am
l ers
Ġs ac
Ġc admium
al a
Ġm echan
Ġh ors
Ġl osing
ĠM ax
ul ate
Ġr ang
ian a
Ġun ivers
ĠV an
Ġcont ain
Ġcont act
Ġad j
ric ult
Ġatt ended
Ġem ph
Ġ198 8
Ġoffic ially
Ġed ition
Ġtri ed
Ġorgan ized
Ġcapt ure
Ġindivid uals
Ġtransfer red
Ġphys ical
l im
Ġ áĥ
Ġa st
ĠS um
ent al
ad el
ĠM ass
ĠH u
Ġpro ved
ab ama
ge nd
Ġper man
ĠAl abama
Ġne ut
Ġact ing
pr ise
ĠMe an
Ġrequ ire
Ġwin ter
Ġbeh av
Ġpat tern
Ġofficial s
Ġmeas ure
Ġsurround ing
Ġrain fall
Ġded icated
ĠJose ph
ĠOm aha
ĠMogad ish
c he
c an
r ong
u ous
in em
Ġf eder
ĠS en
Ġl ives
ĠM D
ĠB u
im ore
ĠD est
ĠK ent
Ġen ergy
Ġ6 4
ĠAr m
Ġdo ing
Ġed ge
ĠEd ward
Ġcou ple
i j
i ate
on n
Ġw a
it ness
Ġf olk
Ġm ind
ĠF ant
ĠG all
ĠL ord
Ġch ief
Ġsh ape
Ġ4 6
iz es
ib r
Ġpre par
Ġfollow s
az z
ĠInd epend
Ġdesign ated
Ġshort ly
Ġposs ibly
ĠRec eption
Ġsoc iety
Ġdiv ided
Ġfun ction
Ġdiss ip
ĠHel ms
Ġintens ity
ĠInn is
Ġfinanc ial
ĠMogadish u
R A
k are
Ġf aced
Ġb order
Ġp aid
ĠB h
ĠB owl
ĠP rem
ĠL is
ĠJ ourn
Ġy our
Ġy oun
Ġinc orpor
Ġim ages
Ġalbum s
Ġrep e
Ġ196 4
Ġsim ply
Ġold er
Ġleg isl
ĠHist or
Ġlet ter
Ġsour ces
ĠWil helm
ĠMcC all
Ġey e
Ġdeterm ined
Ġjourn al
Ġmax imum
ĠArg ent
V D
e er
u x
w ide
Ġa id
in ated
al ing
Ġm aster
ent ure
Ġth ir
Ġon to
ĠE nd
Ġcom edy
ĠK ore
Ġpl aces
ip ment
Ġad vert
ug by
Ġmov ie
Ġbro ken
Ġport ion
ĠAss embly
Ġke pt
Ġdou b
Ġpiec e
Ġpot ential
Ġscul pt
Ġemph as
S tation
Å į
Ġ rom
ed ar
Ġc ities
Ġf rag
Ġd ut
Ġh om
ĠF leet
ĠJ up
ud d
du ction
Ġchar ge
ĠComm ission
Ġarg ued
Ġir on
ĠPlay Station
Ġdom estic
Ġroy al
is ters
le ction
ĠB ir
Ġg e
Ġg rew
et y
Ġst ep
ĠR ih
ĠF A
ĠG ood
ĠN ight
ag an
ist ry
ĠK n
ast y
Ġsp ot
Ġun k
ĠV en
Ġcont ent
Ġro ll
Ġ5 3
Ġ5 5
Ġcol or
Ġdep th
ĠComm on
Ġsuggest s
Ġauthor ity
Ġproject s
Ġmanag ement
Ġsit es
ĠHam els
ĠVal ley
ĠBalt imore
ĠRih anna
Ġs ay
Ġs ens
Ġw or
Ġw ave
Ġf ung
Ġp aint
Ġh omes
Ġh ospital
ĠS ky
ac ement
ly s
Ġg ained
ĠW rit
ĠG reek
um es
Ġsh are
Ġsc ience
Ġatt end
Ġwe ak
Ġpr ison
Ġmus eum
Ġent rance
ert ain
Ġdep art
Ġart ic
ĠCon stant
Ġbel ong
Ġph il
Ġcaus ing
Ġtw ice
Ġcritic ized
Ġstruct ures
ĠPal est
ĠDj ed
Ġult imately
Ġtar get
Ġsched ul
Ġwebs ite
r ative
Ġf res
Ġm outh
Ġh yd
ĠB ig
ĠP en
ĠD VD
ĠL ew
Ġv ess
Ġde ploy
ĠU l
Ġcont aining
Ġint ellig
ĠAn th
Ġform ation
Ġinter p
Ġdef ence
Ġresult s
Ġdeb uted
ĠFore st
Ġdism iss
ĠJup iter
ĠDjed kare
g n
y a
y r
Ġt ail
re l
at i
at ur
or ter
Ġc ore
Ġc ricket
Ġf ast
ĠM ore
ĠB ur
ĠH ib
Ġch osen
Ġk g
ĠU s
Ġ5 6
Ġrem ix
Ġdef ensive
Ġop in
Ġmin er
Ġ194 7
Ġbatt les
Ġfore ign
Ġplan et
Ġcoll abor
ĠTor res
Ġlab el
m ore
Ġf ix
Ġin ch
Ġp an
ĠL ock
ĠJ on
ĠE astern
ĠO x
ĠCh ap
ĠCh ild
Ġ4 3
Ġsec urity
Ġcons ecutive
ĠSh ort
Ġent er
Ġ12 0
Ġbr igade
Ġprom inent
Ġorgan ization
Ġstand ing
Ġrefer ence
Ġgrow ing
Ġanim al
Ġbur ied
Ġindepend ent
Ġgrant ed
Ġreject ed
Ġaband oned
M L
b l
t hen
Ã ¼
Ġs and
Ġd iam
ĠF ield
ĠG re
Ġv en
Ġse ek
oc ated
ĠOn ce
Ġwe ight
Ġcol ony
Ġdo ct
Ġthere fore
Ġstud ent
Ġ194 1
Ġvis ited
Ġclaim s
Ġtem ple
Ġord ers
ĠAir port
Ġcond ition
Ġcell s
wh ite
ĠScott ish
ograp her
ĠApple white
e es
m on
m osp
Ġm ic
Ġd ress
ĠS o
ĠS AF
ĠC re
ĠB on
ĠB BC
ir ing
ĠR A
ĠN orm
Ġr isk
Ġsp ect
ph ia
Ġnew ly
Ġreg ions
Ġsecond s
Ġsing les
Ġ198 7
air s
Ġbro ke
Ġmom ent
Ġwound ed
adel phia
ĠSAF E
a o
Ġt ur
Ġa head
Ġc ases
Ġf ear
as ters
ou red
Ġre aching
Ġhe ight
res p
ĠIn stitute
Ġse ems
Ġen emy
ĠInd ust
Ġsol o
ush ing
Ġequ ipment
ffic ient
Ġknow ledge
Ġident ified
Ġnomin ated
ĠEgypt ian
Ġtemper ature
ĠBack ground
Ġvers ions
n ers
t av
Ġt un
Ġa ired
Ġc ust
Ġc ouncil
Ġb ud
Ġm ales
ad ing
ĠB an
ĠD ue
ĠJ ur
Ġun ique
Ġ4 1
Ġ198 4
Ġ198 9
Ġ197 2
Ġreturn ing
Ġsupport ing
Ġele ment
ĠBe fore
Ġcamp us
Ġopp osed
urb an
Ġproble m
ĠCroat ia
Ġenv ironment
ĠFur ther
L e
c y
m un
Ġt im
er o
Ġf ired
Ġf ox
is hes
ĠS ub
ad s
ĠM ike
et te
ot ed
Ġat mosp
Ġan alysis
ĠE ach
ĠK ir
Ġun p
Ġ5 4
Ġper fect
Ġte acher
Ġ198 5
Ġoper ated
ĠCar l
ĠOr igin
Ġlook ing
Ġincreasing ly
Ġliter ature
ĠOper ation
Ġschol ars
ĠEnter tain
Ġstra ight
Ġunk nown
u ct
Ġthe ory
Ġb oy
al le
st ream
am ing
Ġe c
ĠM ort
ĠI d
id er
ĠH MS
ĠR y
ĠR et
Ġal ter
Ġhe re
igh th
ĠK ar
Ġcomp r
Ġwe ather
Ġwrit es
Ġdef in
Ġac ad
Ġbelie ve
Ġbre eding
Ġexpl ained
Ġcommon ly
ĠBar row
Ġhistor ian
Ġide as
Ġsett lement
ĠSw ed
Ġburn s
ĠCard iff
Ġconfir med
Ġmole c
e g
u ge
y ch
Ġo d
Ġo il
at o
ĠM ic
Ġst ations
ĠP ublic
ĠN ever
av ed
ĠE ven
Ġv o
ĠK ey
ĠSt an
ĠV ill
Ġar rest
Ġher self
ĠOn ly
Ġcons isted
Ġsing ing
Ġ194 4
Ġland fall
ĠCl ass
Ġadv anced
ĠDe velop
Ġsystem s
Ġpar liament
Ġcritic ism
Ġfem ales
ĠMich igan
ĠKe ats
Ġstri ke
ĠPhil adelphia
Ġproper ty
ĠCong ress
Ġeconom ic
Ġcontroll ed
h u
k et
al ions
Ġp ict
as ure
ĠH art
ĠR og
ĠG i
ĠG ord
ĠL l
ill o
Ġde ities
Ġim ag
we et
aw a
Ġexp ed
Ġcre ation
Ġlead er
Ġ13 0
ĠWilliam s
ĠMount ed
Ġgrow th
Ġmaint ained
Ġpiec es
Ġfail ure
Ġdro pped
Ġsem i
ĠAdd ition
ĠMean while
Ġa wards
in ity
in ary
en a
Ġf ict
Ġm ob
ĠA p
ĠM att
ĠB as
Ġg ar
ĠR os
ĠD en
ĠD utch
un ic
ra k
ĠG ard
ĠL u
ĠL uc
Ġcomp ar
Ġar rang
Ġres emb
Ġ5 7
ĠAl bum
hip s
Ġfilm ed
ĠLe g
ful ly
Ġgu est
Ġkill ing
Ġfre eway
Ġpit ched
Ġhon or
Ġfly ing
Ġinj ury
Ġfeder al
i as
Ã ¶
Ġt act
Ġt ask
on om
Ġs en
Ġb it
Ġm ist
ĠB ost
ĠD er
ĠD is
ĠD un
ĠG h
ĠN athan
ant ly
ie val
ĠIt aly
Ġser ve
amp ion
Ġ6 00
Ġact ress
Ġret ired
ash ion
Ġmat ter
ĠGu ard
Ġrest aur
ĠAnd y
Ġbelie f
Ġhum ans
ĠAb u
Ġspe ak
ĠSte ve
Ġbo ats
Ġrelig ion
Ġpromot ed
Ġval ue
Ġmount ed
ĠMin ister
lus ion
ĠJe ff
Ġrapid ly
Ġbatter y
Ġweap ons
Ġhors es
c ription
j o
k in
Ġ ut
Ġs elling
Ġb id
Ġb ank
ro ph
ic ed
Ġh am
ĠA st
ĠC old
ĠM od
ul i
ĠL es
ers ey
ag er
all s
ie ut
Ġag ricult
Ġfl ank
Ġcol umn
ĠAmeric ans
Ġdesc ription
Ġinv asion
ĠCon ference
Ġpass es
Ġpass ing
Ġpublic ation
Ġprot est
Ġcou gar
Ġsignificant ly
Ġpromot ion
Ġconn ected
Ġrecogn ized
Ġcreat ing
Ġmult iple
Ġcle an
Ġprem i
Ġaccomp an
Ġprep ared
c op
f ort
h an
h aps
Ä ĩ
re te
re nder
Ġs ought
it able
Ġb ats
Ġm o
Ġd ata
ĠM ur
ĠM em
ĠF inal
ĠW at
ĠW ork
ĠIn st
Ġch ose
ĠV ideo
ick s
ames e
Ġstart s
Ġfam ous
Ġdel iver
Ġpopular ity
Ġproduc ers
cher s
Ġvol ume
Ġwall s
ĠSl am
Ġregard ed
Ġstreng then
Ġreact ion
Ġsil ver
Ġasp ects
Ġnucle us
Ġsev enth
Ġnecess ary
Ġschedul ed
c a
h i
l oad
y th
Ġd rop
Ġre form
ĠA ri
ĠC ole
Ġl aid
ly ing
ol ved
ot e
Ġbe aut
ĠG ulf
ĠL ine
ĠL iber
Ġv irt
Ġr ise
Ġr ival
Ġse nd
og en
Ġnew s
Ġ9 6
Ġ198 1
Ġland ing
hel ess
Ġstri k
ĠVietn amese
Ġsust ained
Ġphil os
h m
o ch
u an
Ġo uter
Ġf at
Ġf ought
Ġd ated
ĠS und
st anding
ĠM u
ĠH aven
ĠN az
ĠO bs
if ying
Ġsp ring
ip s
ock ed
ven ue
ĠAd v
ĠUS A
Ġref lect
ĠPh o
Ġdr ive
ĠAm ong
Ġcast le
Ġcurrent ly
Ġemploy ed
ĠCamb od
Äģd a
Ġfamil ies
ĠThunderbird s
Ġbud get
r um
y t
à ¸
Ġt ree
he astern
in i
on ent
Ġs ave
Ġp ul
Ġm ort
ĠA thlet
ad d
iv ity
im ents
ĠD omin
ĠG irl
Ġr ating
Ġex ec
Ġcont ained
Ġar ms
Ġro w
Ġ7 00
Ġunder ground
orn ey
Ġend s
olog ists
hes s
ins ula
Ġ17 9
Ġph ase
Ġ193 9
Ġtri al
Ġfac ilities
Ġfrequ ently
ĠOx ford
ĠEntertain ment
T C
i i
l ines
r ig
s w
Ġw ed
ro g
Ġd ial
ĠC a
Ġl a
ĠH an
Ġbe y
th ur
ĠD ar
un ction
ĠF re
ĠF riend
ĠF estival
ĠG reg
ĠN H
ĠE ll
Ġex ecutive
se a
ian ce
ap h
Ġun us
Ġcomp uter
Ġcont ributed
Ġar c
Ġpre fer
Ġcol lected
Ġact ors
Ġexp ress
Ġ194 2
Ġsim ple
Ġallow s
Ġneg ative
bor ough
ĠStud ios
Ġdeg ree
ĠRev olution
Ġbott om
ĠGord on
i able
k ins
r idge
Ġc ited
Ġc raft
ar ian
Ġh or
ĠS us
ĠC hel
ay er
ĠR ail
un te
ĠN BA
Ġsh aped
se y
ĠSt ep
Ġsp orts
Ġover l
ang ers
Ġ6 1
Ġ7 3
Ġ9 5
Ġoper a
Ġ191 8
Ġeffect ive
Ġentire ly
Ġanim als
ĠCo ast
Ġimpro ved
Ġsubsequ ent
ĠBet ween
ĠTurn er
ĠCra zy
ĠPrem ier
Ġfict ional
ieut enant
Ġbey ond
e z
i ot
m ission
Ã ¤
ar p
Ġm ig
ĠB ru
Ġg ain
Ġg ives
ĠR el
ag ement
Ġnot able
per ial
Ġrec ently
ĠAl f
Ġ6 2
Ġ9 7
Ġ8 00
ĠMar io
Ġtra in
Ġ196 8
Ġ196 9
Ġext ensive
anc ing
ĠPro v
Ġvis ual
Ġmed ical
Ġfind ing
Ġmy th
Ġbo at
Ġenc oura
ĠBo ise
Ġgrad ually
ĠTur k
ĠMart in
Ġkilomet res
ĠTod ay
ĠLew is
ĠBost on
c hen
i ences
r ine
Ġs ail
at us
is y
Ġb ass
ro t
Ġd ates
ĠC le
ĠC ub
Ġe gg
ec k
ly wood
ĠB art
Ġst ages
ĠR od
ĠF ox
ul es
ĠJ ain
Ġch air
ĠK ang
ĠU N
ĠSt one
ĠHe ad
are t
Ġfin als
ren ce
Ġfl oor
Ġmus h
Ġsecond ary
Ġsever e
Ġexp anded
Ġ197 5
ĠBr idge
Ġocc as
ĠJu an
yc le
Ġserv ing
Ġant imony
ĠBar b
Ġsurv ey
Ġprogram s
Ġgl ob
ĠCro wn
ĠPe ople
ĠSy stem
ĠRuss ian
Ã¡n h
ĠDan iel
e ed
i ations
y son
ed a
it an
Ġb ow
Ġb ul
le e
ĠA er
ĠI gu
Ġg reen
Ġit ems
Ġcom es
op p
ill ing
Ġch ur
ust ed
Ġun f
Ġcomp osition
Ġar ran
out s
Ġcent uries
Ġ7 2
Ġ8 5
ans as
Ġ196 5
Ġ197 4
ograph ic
Ġexc lus
Ġfind s
ĠEv ita
Ġjo in
ĠMag azine
Ġoccup ied
ĠBel g
ĠUp on
s et
t hes
u ate
er ts
Ġf aith
Ġd aily
om pl
Ġn aval
ĠM en
ec ess
ĠB and
ĠG ab
ĠJ ac
ĠJ ud
iz ations
ubl in
Ġdec ades
Ġ8 1
Ġso le
ĠIs ab
ĠComm ander
Ġdeath s
Ġsuccessful ly
Ġloss es
ĠKh Ã¡nh
ĠMac Le
Ġneg ot
Ġtreat ment
Ġslow ly
Ġindepend ence
Ġcal c
Ġcommission ed
Ġexperi enced
w in
Ġa er
ĠA venue
ĠC D
am y
Ġe th
ĠR ome
ĠF ar
ist an
Ġ7 1
Ġ9 4
Ġfl ag
Ġco ol
Ġ16 4
Ġdid n
ĠPro ject
Ġtri p
Ġperson nel
Ġsent ence
Ġeng aged
Ġcapt ain
ĠSong s
ĠJam al
Ġpurch ased
Ġpolic y
ĠLi u
Ġbene f
a ire
Å ¡
Ġl abor
Ġe as
ĠM ot
ĠB rian
Ġst reet
ĠP ers
Ġbe ach
ĠR ol
ĠD ublin
ĠG A
and a
av a
Ġch orus
Ġnot hing
ĠCh art
Ġacc ompl
Ġco al
ann y
ĠSh a
Ġsupp ly
ĠSc ience
Ġ16 0
Ġconc rete
Ġ194 6
Ġsouth west
Ġprot agon
Ġworld wide
Ġbeg un
Ġel imin
Ġprop os
Ġdecl ined
Ġreason s
ateg ory
Ġbrief ly
ĠTenn yson
ĠTem ple
ĠThrough out
ĠDist rict
Ġfres h
ĠIgu an
t own
Ġthe at
at on
ing ly
el a
Ġn or
ĠM ov
ĠB ull
Ġg as
ir ation
ut ing
ut ation
ĠD own
ĠIn g
Ġinc ident
ĠAl so
Ġmov es
ĠLe on
pr ing
Ġlead ers
Ġdra wn
ĠTr ack
Ġimport ance
Ġroad s
ĠSim one
Ġsum m
Ġesc ape
ĠGovern or
Ġnorm al
Ġplat form
b o
b orn
Ġ #
Ġt all
Ġt end
er c
on ic
Ġw itness
Ġp et
Ġd ance
Ġh ired
am in
ĠB ern
ĠB aby
ĠR ay
Ġis ol
ĠJ es
Ġr ac
Ġpl um
qu ake
Ġsp ons
ell i
ru g
ru pt
Ġdec ade
ook ing
ĠMar ia
Ġfl u
Ġfound ation
Ġlong est
Ġ196 6
Ġ195 2
Ġgu ard
Ġ193 6
ĠPro duction
Ġ191 9
Ġposs ibility
ĠBro ok
ĠTe am
Ġdel ay
Ġarr ival
Ġchap ter
Ġbill ion
Ġparticip ated
Ġfir m
Ġuns u
ĠAre a
Ġenjoy ed
Ġrespond ed
ĠFam ily
Ġpaint ings
resp ond
ĠDevelop ment
Ġsen ior
Ġaccompan ied
ĠMacLe od
3 0
B S
l s
r ons
is ers
ĠB oard
Ġst ret
ĠR ow
ĠR ox
ĠD ream
ĠF ive
os a
Ġhe ard
Ġr ing
ich ol
ĠU lys
ĠCh ains
ĠAl i
ĠAl bert
Ġj ack
ĠMar l
Ġver t
Ġsub s
ific ations
Ġset ting
Ġ11 0
Ġ17 7
Ġdevelop ing
ĠDe v
Ġold est
Ġpar alle
Äģ n
ÃŃ a
Ġsqu ad
Ġagre ement
Ġdoll ar
het ic
Ġrough ly
ĠAdm ir
ĠSum mer
ĠUlys ses
O C
c hest
o e
Ġ i
an o
Ġp al
Ġd og
ĠT im
ĠB or
ĠB ond
im et
ĠW all
ĠIn t
Ġch oice
pt y
ess ed
Ġ7 7
Ġrem n
Ġcons ists
Ġdec re
Ġacc ident
Ġcall s
Ġtrans it
Ġadd ing
Ġpop ulations
Ġem p
Ġ197 3
ĠCon st
Ġlast ed
esp read
ĠPh ill
Ġtown s
Ġcomb ination
Ġtechn ology
Ġexist ence
Ġregard ing
Ġviol ence
Ġdomin ated
Ġpoet ry
Ġsymb ol
ĠFranc isc
Ġathlet es
ĠDou gl
ĠAnth ony
ĠInst ead
ĠTurk ish
a ver
c ome
r ant
w ar
Ġ ign
it ors
Ġf ellow
ĠS k
ĠThe atre
ĠB ishop
us al
Ġal tar
Ġcom ic
Ġse at
Ġnot e
Ġcont rib
Ġres erv
Ġ5 9
ress ive
Ġcomm ittee
ĠAn onymous
Ġunder t
Ġfilm ing
Ġass ass
Ġsub mar
Ġac res
Ġdo or
Ġtra v
Ġperform ing
Ġ196 7
ĠCon n
ruct ure
ĠCar ib
Ġclub s
Ġcompet itions
ĠBra z
Ġcolle ge
Ġassoci ation
Ġclos ely
ĠOd e
Ġexist ing
Ġappl ied
Ġhabit at
ĠRad io
Ġweaken ed
ĠHorn ung
Ġunsu ccess
v ens
Ġt rou
Ġt ells
Ġf ashion
is f
Ġp s
ĠA ston
ĠA ML
il ing
ĠB i
ĠL ife
ag re
ag le
ist on
ĠK enn
Ġrec onst
Ġro of
Ġper haps
Ġdes cend
Ġ6 6
Ġ9 8
Ġtr uth
ĠMar c
Ġne ither
Ġsub stant
Ġ17 5
Ġdist ingu
Ġprov ides
Ġ191 4
Ġbatt alions
Ġserv es
Ġcap able
Ġgreat ly
Ġappe al
ĠMount ain
Ġcor rect
Ġcor respond
Ġlearn ed
Ġpain ting
Ġarchae ological
Ġder ived
Ġrein force
Ġpil ot
Ġdetail s
Ġpurp ose
Ġadminist ration
Ġopportun ity
Ġcerem ony
Ġoccasion ally
ĠCarib be
O T
b urg
v ar
on a
Ġs om
Ġs ort
Ġf illed
Ġb ought
Ġh yp
ent ially
Ġth ing
Ġon es
ĠH on
ĠD ota
ra it
ĠO h
Ġsu fficient
ĠIn c
ĠSt ew
ount ain
Ġsupp osed
Ġexp ans
Ġrece iving
Ġinv ited
Ġhead ed
Ġed itor
Ġprot ection
Ġstory line
ĠBro ad
Ġbas ket
Ġspe aking
Ġsk in
Ġenc ounter
Ġhouse hold
Ġtechn ique
Ġnec k
Ġinn ings
ĠArch ae
Ġvehic les
Ġdissip ated
ĠChel sea
Ġchur ches
ĠDougl as
ĠCaribbe an
G N
R E
V N
l a
Ġa im
in j
or al
Ġc it
Ġc ra
Ġc rop
Ġd rew
Ġh at
Ġe u
ĠM el
ur i
ĠD et
ĠL ow
ĠL ieutenant
ĠJ ay
ag n
ĠE RA
Ġse g
ab il
pt on
ĠV ol
Ġev ac
rop ri
ĠAs ia
Ġac id
Ġgo es
Ġrece ive
Ġ194 5
Ġ197 1
ĠWh at
Ġany thing
Ġclass ified
Ġtyp ical
Ġview ed
ĠAb out
ĠPer ry
Ġsurv ived
Ġisland s
iec e
Ġwid espread
idd en
Ġmass ive
Ġmot ion
ĠCard inal
Ġstop ped
ĠMa eda
Ġdram a
ĠGeorg ian
Ġsout heast
ĠFred er
Ġast ron
ĠConstant ine
ĠHib ari
l ik
r ist
r uli
t ty
Å Ĥ
Ġo pt
Ġf uel
ĠA ge
il ton
Ġl oad
ac ity
ĠM TV
ol a
ĠH in
ĠH ard
ĠR un
ĠR io
ĠR Ã©
Ġwh y
ĠW ind
op es
igh ter
Ġch o
ĠK il
Ġsh ared
ap es
ie ge
Ġro b
ĠY e
ious ly
Ġfl ights
Ġsub t
Ġso ft
ann ed
Ġ198 2
Ġ17 6
Ġdist rict
ĠQ edar
Ġ25 0
ĠPr inc
Ġauth ors
Ġinit i
ĠRoman i
ĠSim on
Ġsett lers
Ġmiss ing
gl ades
ĠGold en
Ġtry ing
Ġacqu ired
Ġdig ital
Ġconver ted
Ġsaf ety
ĠFant asy
ibr ary
Ġrepe ated
c er
v is
Ġ ice
in osaur
Ġc ab
Ġd ub
st ances
Ġl in
id ges
iv ered
ĠP att
ĠG il
ĠG ang
ĠG ram
ĠJ ones
ri er
if ul
Ġr ich
Ġch annel
Ġex act
ĠSt adium
Ġsp acing
Ġle gend
Ġro utes
man n
Ġfin ish
ild ing
iss ance
Ġloc ations
Ġ197 6
Ġ195 6
Ġ191 3
Ġ191 6
Ġexper iment
rem e
Ġgl ass
Ġwat ched
Ġhold ing
Ġbase ball
Ġreb u
Ġfund ing
ĠMo z
Ġfoc used
Ġplann ing
ĠOs lo
Ġdepict ed
ĠSur v
ĠHo ly
Ġinstr ument
ĠHait i
Ġsuc ceeded
Ġperman ent
ĠVen us
Ġopin ion
ĠShort ly
Ġatmosp here
ĠPho en
Ġwed ding
Ġarran ged
ĠIguan odon
ĠBraz il
Ġ urban
Ġt able
Ġw ick
Ġb owl
an th
Ġp ack
Ġm ut
ĠM ah
ĠF el
ĠF ire
ĠG ra
ĠL enn
Ġch ance
ĠK at
ap ers
Ġres ident
Ġro se
Ġover se
Ġkn ew
Ġdec line
ĠAr ts
ob a
Ġchar ter
Ġass emb
Ġdef ined
Ġ11 2
Ġ194 3
Ġrev olution
Ġprov iding
ĠAll ied
Ġprot ect
Ġreal ity
ĠSim ilar
Ġcreat or
Ġpen alty
Ġearth quake
Ġri f
Ġcred ited
ĠSecret ary
L I
p ass
Ġt ied
Ġs un
Ġw ins
Ġd ating
ĠS now
ur ation
ĠB ul
ĠI GN
ĠH ell
ĠH omer
ĠR angers
ĠG ully
Ġr ub
ĠCh ronic
Ġpre gn
form ation
Ġ8 7
Ġsupp lies
Ġ196 3
Ġdown load
Ã© t
Ġair port
Ġmod er
Ġhead s
Ġway s
Ġexpl os
ĠAb b
Ġdel ivered
ĠSte vens
Ġlaw s
Ġtechn ical
ĠMor rison
Ġsepar ated
Ġren amed
ĠEver glades
ev o
Ġthous ands
ĠAddition ally
ĠHin du
S B
c rib
g Ã©
h at
m in
Ġs an
Ġf air
Ġd ry
ĠT op
ĠS ound
ad or
Ġg al
Ġr ural
Ġse lect
ess ing
ear s
ĠU TC
ub e
ok es
Ġen l
Ġte aching
iss ipp
Ġsec ure
att le
ĠAr thur
Ġcol our
Ġreg ime
Ġem peror
ĠComm ittee
ĠAustral ians
Ġturn ing
Ġcommand ed
Ġopp osition
ival ent
Ġcour ts
Ġsurv iv
ĠMiss issipp
Ġcert ified
ipp ing
ĠWal ter
Ġey es
Ġassist ance
Ġremain der
ĠHol lywood
Ġjourn ey
Ġindic ate
Ġconsist ing
ĠBrad ford
ĠAlex ander
ĠOff ice
Ġpow ers
ĠColumb ia
ĠTru j
ĠSund ay
ĠFriend s
o h
Ġa ware
er ted
re ll
Ġc ard
Ġp up
Ġd rug
Ġh arm
ĠT el
ĠC op
Ġl it
Ġl ov
ĠM ul
ĠP u
ĠR on
ĠN ative
est one
op her
Ġsu d
ard o
ak ed
Ġim pr
Ġatt ached
ĠMar ine
Ġqu ite
Ġhigh light
Ġno isy
Ġsur render
Ġadd ress
Ġ197 8
Ġdist urb
Ġocc urs
Ġ195 3
Ġcamp s
Ġturn s
Ġview s
Ġrefer ences
Ġval ley
ĠMary land
ĠMont ana
Ġeconom y
Ġestablish ment
ĠCroat ian
ĠDem ocr
ĠCrit ical
ĠDirect or
Ġhyd ro
ĠTruj illo
d al
i ents
n est
r in
t ure
Ī Ĵ
Ġf an
Ġb ranch
ĠS av
ent ions
ĠM L
ĠM id
ĠM aster
ot hes
Ġst ore
ĠD om
ĠF ish
um a
ag ues
Ġpro s
Ġv ic
ew here
Ġâ ĪĴ
Ġle aves
Ġres ist
ĠAl an
Ġfin ishing
ĠAn ton
ict ed
Ġinter ior
its une
Ġmon arch
Ġstud ied
Ġrep utation
Ġlead s
Ġdist ribution
cept ion
Ġsuccess or
Ġrepl ace
ĠSte f
ĠEx p
Ġproduc ing
Ġcirc um
Ġmiss ions
Ġden ied
Ġimm ig
Ġshoot ing
Ġadapt ed
Ġmethod s
Ġpu zz
ĠCharl ie
ĠEngine er
Ġportray ed
ĠStep hen
ĠRox as
ĠMississipp i
b ur
b reak
i Äĩ
r ations
Ã ¸
re al
Ġw orth
Ġf ranch
Ġb aby
ĠS ap
Ġl ic
Ġl ane
ĠH ug
ĠP ress
ĠD i
ĠF low
ĠN BC
ri en
ĠE du
ak a
ond er
Ġoff ense
Ġpre y
Ġup d
Ġ6 9
Ġgame play
Ġent ry
Ġent ering
Ġob t
ĠPl unk
Ġcharacter istics
Ġ191 5
Ġprot ected
ĠRec ording
Ġwind ow
ĠWith in
Ġpolit ics
Ġcr ime
Ġget ting
ĠAct ivision
Ġmot or
Ġmaint ain
ĠHow ard
sen al
ĠSam uel
Ġwor st
Ġintellig ence
Ġdismiss ed
a ug
k h
n i
n s
Ġt ell
in als
or er
or ters
Ġc ry
Ġc rown
Ġp ound
Ġto mb
Ġd ie
el ve
am ber
ac ent
ot es
Ġst ones
ĠR idge
ĠD NA
ĠW y
ĠL oc
ĠN ether
ct ions
Ġv on
Ġr u
Ġex erc
ĠK el
Ġnot ing
end er
Ġres our
Ġj oint
Ġatt ributed
Ġshe l
Ġkn ots
ĠMar sh
Ġchar ges
Ġret ire
Ġmon ument
Ġclass es
Ġcap acity
Ġbas in
Ġelect ric
Ġnov els
Ġhistor ic
ĠEl iz
Ġchart s
Ġintrodu ction
Ġinterest ed
ĠCal vert
Ġhold s
Ġdoll ars
Ġdiscuss ed
Ġphilos oph
Ġmush room
ĠIsab ella
e enth
g ie
w ise
Ġs ector
it age
it led
Ġc inem
Ġf er
ĠT s
ĠT rib
ĠC am
ĠB os
ĠP ope
ĠD anny
ĠW alk
os is
os ure
ĠJ ersey
Ġv an
Ġv ary
Ġv ision
ĠSt rand
Ġcont est
Ġag ent
Ġoff ers
ĠY ank
ang erous
Ġ7 4
Ġ7 9
aw s
Ġ9 1
Ġpubl isher
Ġsy m
aj evo
Ġ194 8
Ġdescrib ing
Ġgener ation
Ġappear ing
Ġ191 7
Ġmed ieval
Ġfield s
Ġsol id
Ġstat ement
Ġ189 0
Ġpit ch
Ġcoast al
Ġpred ecess
Ġaccount s
Ġrul ed
Ġrul es
Ġtrib es
Ġchap el
ĠRes ear
Ġcolon ial
Ġrh yth
ĠSar ajevo
ĠWeek ly
ĠLis a
Ġyoun ger
ĠIndust ry
b les
e f
g ra
w ater
re ts
Ġc aught
Ġb ond
Ġin ner
Ġh ope
ĠS a
ĠS or
id ers
iv als
ĠH ere
ĠD aily
ĠW ars
ĠJ if
ate ur
Ġpl ants
Ġk ings
Ġun n
Ġar ts
Ġman ner
Ġdes ire
int end
Ġ8 8
Ġrele g
Ġso il
Ġsome one
Ġ197 9
Ġinst ruct
Ġ195 1
ĠOr gan
eng ers
Ġbas ic
Ġevery thing
Ġdiscover y
Ġdifficult y
off man
Ġrecogn ition
Ġz one
Ġsyn thes
Ġexcept ion
Ġap art
Ġforest s
ĠCamp b
Ġrare ly
Ġconsider able
ĠVictor ia
Ġemot ional
Ġnin th
ĠDest iny
Ġartic le
Ġrestaur ant
Ġeu rop
ĠFreder ick
ĠYank ovic
2 0
Ã §
Ġ ur
Ġt aught
Ġw orship
Ġc old
ic ian
Ġm ine
Ġm unic
Ġh a
Ġh ill
Ġh all
ĠA round
ĠC hen
am ents
Ġn ob
Ġg all
ig ades
us ing
ĠR em
un ion
ĠF air
ĠE lect
ĠIn it
ab les
ab eth
Ġsh ore
ult ane
Ġwe alth
ĠLe e
ĠJo e
Ġ12 1
Ġ196 1
Ġland ed
Ġ195 4
Ġeven ing
Ġopp onents
Ġrepl acement
ĠTe levision
Ġinvol vement
Ġsett le
gr aded
Ġvol unte
Ġnomin ation
Ġspecific ally
Ġwood en
ĠTrans port
Ġhot el
ĠSomal i
ĠClark son
Ġthir ty
ĠRol ling
ĠMoz amb
Ġsud den
A C
B rien
e per
i Å
i ary
l an
y les
Ġt al
Ġt ie
re ets
at ures
or ous
Ġf ish
Ġb al
ing ale
le ep
ĠA R
ĠS i
ĠS anta
ĠS pring
el ess
Ġst ream
ver se
ce ived
ĠD A
ĠF ame
Ġcon sequ
ĠL ords
ist ol
av ia
Ġle uk
Ġj u
Ġj azz
ĠY an
rop ol
Ġsec ured
ĠAs h
Ġ9 9
Ġacc ur
ĠLe v
ink ing
Ġcar bon
Ġ193 7
ĠMus lim
Ġbelie ves
ĠOr der
Ġcommun ities
ĠSim ps
Ġdiv ine
ĠRober ts
Ġpoem s
ask a
ĠDu ke
Ġindust rial
Ġve get
ĠSing les
ĠJer usal
Ġinters ection
ĠCast le
Ġpick ed
Ġcontrovers y
rane an
ĠWild e
Ġrecomm ended
Ġspl it
ĠColon el
Ġfung us
ĠSky e
ĠBon o
ĠMod ern
ĠFrancisc o
ĠJif na
ĠSimps ons
ĠJerusal em
b an
r ast
t heless
v a
á »
Ġ ic
Ġs ed
Ġs oul
Ġw rong
Ġf it
Ġf aces
Ġd im
Ġd ock
ĠC ab
ĠC ory
us sion
ĠR if
ĠD ur
ĠW in
Ġcon vers
ĠN ap
ĠN ick
ĠJ un
ag u
Ġv ide
all ow
ip e
Ġwhere as
ĠSh ak
row s
Ġdep end
Ġlead ership
Ġsign ing
ĠCar ter
ĠPl ot
Ġ195 5
Ġstr ateg
Ġorgan izations
iven ess
ĠPr ime
Ġleg s
Ġstand ards
ĠHam ilton
Ġmiss ed
Ġdraw ing
Ġlaun ch
ĠÃ Ĺ
Ġabs or
ĠOlymp ics
Ġconcern s
ĠMil itary
Ġschol ar
Ġprinc ipal
ĠHum an
Ġextrem ely
Ġspecim ens
ĠAdam s
ĠIndepend ent
ĠArgent ina
c ape
e xt
i ar
p ective
on ica
re c
Ġs ke
Ġs ession
Ġb es
Ġb le
ĠA D
ĠS and
ad ow
id ay
im al
ĠP an
ĠP ul
ĠP ower
Ġcon ference
Ġ19 00
Ġex isted
Ġy outh
Ġpart ies
we alth
Ġte eth
ĠAn c
Ġ8 9
Ġmus car
Ġind ig
Ġmin ister
Ġshow ing
ivers ary
Ġdist ributed
Ġwar m
Ġ195 8
ĠFor ces
ĠBe ach
Ġtri es
Ġappro ached
Ġdem ol
ĠEar l
Ġspe ech
Ġconn ection
Ġrelationship s
Ġtreat y
Ġthreat ened
Ġgra v
Ġsurround ed
Ġemer ged
Ġchem ical
ĠWrit ing
Ġdiam eter
ĠBan ai
Ġps ych
Ġeurop ium
C A
b ie
e or
n es
p oint
Ġ ib
ed om
Ġo ption
Ġw ants
or gan
it als
Ġc orp
Ġf al
Ġf le
ing er
Ġp age
Ġm art
Ġre ct
ĠC E
am m
ĠB ank
ĠI V
ĠI ron
ĠH ung
Ġst em
ut t
ĠP oint
ĠD isc
Ġal ien
ch o
ĠW W
Ġcon g
ud a
oc a
Ġsh ark
ĠCh ief
Ġint ention
Ġpart ial
Ġover w
Ġdec or
Ġdep artment
Ġ194 9
Ġ197 7
Ġbr ight
Ġpoint ed
aur us
Ġopp os
Ġhistor ians
Ġadm itted
Ġsee ing
Ġfac ing
Ġcross ed
Ġregular ly
ĠDep ression
Ġrail way
Ġimmedi ate
Ġfir ing
Ġfavor ite
Ġhop ed
Ġdocument ary
Ġconstit ution
Ġinstit utions
Ġaltern ative
Ġlb w
Ġrat ings
ĠNorm an
ĠRy an
ĠRog er
Ġexped ition
Ġunus ual
Ġisol ated
Ġexpans ion
Ġcit iz
ĠLenn on
b a
i our
o oth
s ch
w ich
z en
à ¤
Ġs ulf
Ġin land
ĠA ld
Ġl ap
Ġe ighth
Ġg ather
us es
us ad
ay a
ĠP erson
ĠD esc
em an
em ia
ĠF ern
ĠF ras
ĠG offman
Ġch ampion
Ġrec re
ĠUn like
form ed
Ġcons um
Ġfl o
Ġreg ional
Ġass umed
Ġ0 7
led on
Ġown er
Ġdesign ation
oss ible
Ġann iversary
ĠHer gÃ©
Ġprot ests
Ġbre aking
Ġreview er
Ġmark s
Ġstrong ly
Ġchang ing
sp ec
omb at
Ġwat ch
Ġdestroy ers
ÃŃ var
Ġtre ated
Ġlangu ages
Ġsequ el
Ġliter ary
ĠTer rit
Ġanc est
ĠRh odes
Ġexam ples
Ġbring ing
ĠJane iro
Ġwaters hed
ĠBol ÃŃvar
Ġinh abit
Ġmess age
Ġrom antic
Ġdut ies
Ġprotagon ist
ĠKil mer
Ġfranch ise
ĠSap rang
n ell
r ates
w orth
in et
er og
Ġs ections
Ġw inner
ĠT est
ĠT ower
st a
ĠM and
ĠB al
ĠB all
ĠB ase
ĠB ert
et on
ot ic
Ġst adium
ĠP A
ĠP ine
ĠW imb
ra pped
ĠL anc
Ġor chest
oc key
ĠK it
ĠSt ation
ĠSt ory
ĠSt ock
og ether
ĠHe arts
Ġag ed
Ġout f
Ġ6 3
Ġ9 3
Ġme ets
Ġret reat
Ġind icated
Ġ0 6
ek Äģn
Ġ198 3
Ġcre st
ĠGer ard
Ġair line
ĠCol or
Ġ191 0
ĠGu y
Ġdet ailed
Ġappro ved
ister ed
enc ies
Ġgen re
Ġcou p
Ġimpro ve
Ġengine ering
Ġgre y
ĠSqu are
Ġcomplet ion
ĠLaw ton
ĠJe an
Ġattract ed
ĠBC E
ĠGeorg ia
onna issance
Ġwear ing
Ġspecim en
ĠBurn s
Ġresc ue
ĠJourn al
Ġacad emic
Ġegg s
Ġeas ily
ĠResear ch
ĠWimb ledon
h ow
k now
o is
Ġs am
Ġs ell
Ġo cean
Ġc ul
Ġb ay
Ġp ric
le ts
ĠS her
ĠC ru
ĠC ook
ĠC orn
Ġl ob
ĠB ass
ig ation
Ġst reak
ĠR aj
ĠW olf
Ġcon qu
os m
ĠN eb
ag a
ag as
ĠO ffic
Ġpro port
pp et
Ġsh if
Ġsp aces
ok ed
Ġcl oud
ran ge
ĠTh ird
Ġpre ced
Ġfl at
Ġacc used
Ġinter change
Ġco ord
Ġac know
Ġdep os
ĠCon c
Ġimp lement
Ġstar ling
Ġattempt ing
Ġmed ium
Ġterm inus
Ġeffect ively
ĠX e
Ġsurv iving
Ġequ al
Ġread ing
Ġcat ch
Ġlook ed
Ġsett led
Ġinsp iration
Ġtravel ed
Ġpract ices
Ġterrit ories
Ġcivil ian
ĠRichard son
Ġfeel ing
Ġassist ant
Ġhapp y
ĠCamb ridge
Ġrh ym
Ġchall enge
ĠSomal ia
ĠAtt orney
Ġadj acent
Ġagricult ural
Ġencoura ged
Ġeth n
ĠAdmir al
c ation
d ess
h l
m el
Ê »
Ġt ick
he im
Ġs ight
Ġs we
it ated
ĠT am
ĠS b
Ġe t
Ġn one
Ġn ick
ĠB ed
ĠH un
Ġst ead
ĠP ass
em et
ĠL ab
ĠN ow
Ġan th
Ġhe ar
if er
Ġv ac
Ġr aces
Ġr itual
ew hat
Ġch ronic
Ġor n
ab led
ĠK ombat
Ġpl ain
Ġsh ots
Ġcomp ounds
Ġrec alled
Ġpart ly
Ġser ial
Ġev il
ĠAn iston
aw are
ĠMar g
Ġacc omm
Ġ0 5
Ġ12 2
enn is
Ġposs ession
Ġvis ible
Ġstand s
atter ed
Ġconv oy
Ġpat ron
Ġ190 9
ĠKe amy
Ġident ity
Ġarm or
Ġ188 0
Ġmult i
Ġpain ted
Ġbrother s
go ing
Ġtow ers
ĠEver y
ĠForm ula
Ġchall eng
ĠGar c
Ġrecover ed
Ġextrem e
Ġseem ed
Ġscient ific
Ġcandid ate
ĠCommon wealth
ĠMort al
Ġarrang ement
ĠJes us
Ġsom ewhat
Ġobt ained
Ġvide os
Ġaccomm od
S A
d s
Ġ Å
Ġt one
Ġthe atre
Ġc ens
Ġc ycle
is is
Ġb at
ic ate
ic ity
Ġh ip
Ġh its
ĠT on
ĠT ype
ent ures
ĠB ron
Ġg ross
id ae
ig ins
ĠH or
ĠH ospital
ut z
th osaurus
ĠG un
ĠJ oy
ĠO wen
Ġpro ceed
Ġex ha
ov en
Ġ5 8
Ġsc hem
ach us
Ġim pl
Ġte ach
Ġcons ult
ĠMar ines
Ġrel ative
Ġfl ed
Ġver se
Ġact s
Ġra id
ann ah
Ġ0 8
ros cop
Ġpres erved
ĠJohn ston
Ġest ate
ĠIs lam
Ġpass age
ĠGerman s
Ġ193 1
Ġ193 5
Ġ191 2
esp e
Ġtw elve
Ġfoot age
Ġconv in
ĠPol and
Ġredu ce
ĠIsland s
stit ution
Ġhost ed
Ġfund s
Ġsuff ering
Ġabs ol
iqu es
ĠFI A
ĠArab ic
Ġlink ed
Ġspir it
Ġcontrovers ial
ĠDes ign
Ġsculpt ure
Ġcust om
Ġbasket ball
ĠPlunk etts
ĠEliz abeth
ĠCory thosaurus
ĠFras er
a it
b ishop
Ġt ailed
Ġa u
Ġs essions
Ġs iege
Ġw ars
Ġc art
Ġin aug
Ġd ivers
le te
ĠT ig
il ly
Ġth in
el in
am ic
ĠB ark
ol ay
ut s
ĠD C
ĠD iv
ĠD yn
Ġal leg
ĠG ib
ĠL ate
ĠN intend
Ġpro hib
Ġsh ut
Ġinc ome
Ġcont ext
ĠY our
ens is
amp s
Ġ6 8
Ġ8 6
Ġver te
Ġdef ended
Ġmus c
ific ial
ĠRe le
Ġexp ensive
ather s
Ġcontin uing
Ġprov ince
ĠAll ah
Ġattack ing
Ġ193 2
ĠPro f
Ġreview ers
Ġdest ruction
Ġdeb ate
Ġequ ipped
ĠPal my
Ġste el
Ġcirc ulation
Ġrespons ibility
Ġlearn ing
Ġblock s
Ġstay ed
Ġconcern ed
ĠHot el
Ġunderst and
Ġmor al
Ġcompos er
Ġadult s
ĠSpec ial
ĠProt est
Ġincorpor ated
ĠPen insula
ĠMarl borough
Ġparalle l
ĠShak espe
Ġoppos ite
erog ative
ĠNintend o
ĠShakespe are
M O
b ody
n al
Ġt rick
Ġo w
Ġp ushed
Ġm ap
ĠT echn
Ġre pr
ĠS em
ĠS weet
st ate
Ġg one
ol i
im inal
us cript
ith ic
ĠP ict
ĠD ark
os l
Ġan sw
ri f
ak u
Ġk itsune
ĠU r
ast e
ĠCh annel
Ġres erve
Ġag ree
ark ed
Ġpo ol
Ġsong writ
Ġ8 2
ĠRe al
Ġmusic ians
Ġpass engers
ĠSp ace
Ġgovern or
Ġwill ing
Ġ191 1
Ġclass ical
ĠGe off
Ġ192 1
Ġ192 9
Ġdr iving
ĠFl ight
Ġel abor
Ġlow est
Ġvict ims
Ġpat rol
Ġlim it
ĠPal ace
Ġpromot e
Ġcross ing
Ġmeet ings
Ġstri p
ĠMed ia
Ġfall ing
Ġreb els
Ġmeas ures
Ġren ew
ĠFe i
ĠLaw rence
ĠPat rick
Ġvot ed
Ġobserv ations
Ġthrow ing
hew s
ĠPit man
ipl om
ĠStan ley
Ġoccas ions
Ġremn ants
ĠConst ruction
Ġiniti ative
ĠNether lands
A T
f are
h ol
p ent
r ating
u v
v ention
y ard
Ġ Î
on ia
Ġs ter
Ġb rick
Ġd iet
Ġh ang
ĠT reat
ĠA k
el ine
ac le
ot al
ot ton
ĠH ob
ĠR ain
ĠF ree
ĠW ic
ĠL ink
ĠL abor
ĠO ur
Ġcom ments
Ġpro l
if ies
Ġr ay
Ġr um
Ġse es
oc eratops
Ġret ained
Ġacc laim
Ġra ise
Ġdef ences
Ġ16 1
Ġob l
Ġ196 2
Ġreturn s
Ġ195 9
Ġ193 8
ĠMe ga
que z
alk y
Ġinvol ving
Ġrepresent ing
Ġequ ivalent
Ġgod dess
Ġpra ise
ĠAtl anta
Ġvill ages
ym ph
Ġpit cher
Ġdifficult ies
Ġsuper ior
ĠIm perial
Ġbi ography
ĠEm peror
ĠPlay er
Ġobject s
ĠQue ens
Ġintens ified
Ġpurch ase
Ġcarry ing
ĠKore an
Ġvess els
Ġfix ed
ĠGuard ian
Ġbats man
ĠCambod ia
Ġglob al
Ġunsuccess ful
ĠStef ani
Ġrhyth m
emet ery
ĠGarc ÃŃa
d on
m es
r ator
w ald
y er
z i
Ġt ight
Ġf ine
Ġf old
Ġb low
Ġb one
Ġp ure
ic op
ic ide
ĠA P
ĠC ult
Ġon line
ĠB ang
Ġg ro
ter bury
ĠH ind
ĠR aff
ĠF urt
ch ang
Ġhe m
res ents
if orm
Ġex change
Ġun ion
ure au
Ġcl oth
over s
Ġcomm it
Ġcomm itted
Ġ6 7
Ġam ino
Ġ16 2
Ġconc erts
Ġsim ultane
ĠCan terbury
ech ism
Ġperiod s
Ġcover s
iter ranean
Ġdefe ating
Ġinflu ences
Ġdiv isions
Ġneed s
Ġcoll aps
ĠMed iterranean
Ġnar rative
Ġreve als
Ġesc ort
ĠPri or
ĠEnter prise
Ġaccomp any
Ġintern al
Ġdisapp oint
Ġcam era
Ġbehav iour
ĠPalest ine
Ġvo iced
ĠAthlet ic
Ġprefer red
ĠAer ith
ĠPhill ies
ĠGram my
Ġsurviv ors
Ġresour ces
spec ies
a fter
b urn
b oy
m ath
r ich
v ements
Ġb or
Ġd ens
ĠS ports
el le
ĠM ir
ĠM other
ĠM Ã¡
ur rent
ĠH ou
ĠR ugby
ĠF ound
ĠF ront
Ġr ugby
Ġex it
ĠK en
ĠK ann
ĠK rak
ip ed
ish ment
ĠAl ong
ren e
Ġfe ed
Ġdec k
Ġform ally
Ġfollow ers
Ġ0 9
Ġrep resents
Ġoper ating
Ġconsid ers
ĠUS D
ĠPro g
Ġclass ic
Ġref ers
ĠMc G
Ġcover ing
Ġel se
Ġcritic ised
Ġdoes n
Ġclos er
ĠChampionship s
ĠMark gra
Ġtrib ut
Ġabs ence
Ġcru iser
Ġfeel ings
Ġvisit ors
Ġproduct s
Ġnorm ally
Ġhundred s
ĠCat hedral
Ġlegisl ation
Ġdeploy ed
Ġinterp ret
Ġpan el
Ġarrest ed
Ġdial ogue
Ġpropos al
inj e
Ġastron om
Ġpup ils
Ġmunic ipal
ĠFern and
ĠColor ado
ĠRaff les
ĠFurt ado
ĠMarkgra f
C C
O K
e an
i y
Ġ ille
Ġt ank
he red
Ġa w
Ġf ram
as hed
ĠS atur
Ġl iber
ĠB ell
ĠB ath
ot ype
ĠH ud
ĠH ok
Ġst able
ĠR oc
ra ge
ĠL y
ĠN ar
ĠN ad
ĠN ichol
Ġde em
Ġch oir
Ġor b
ĠU sta
ish n
ĠV alky
Ġrec onnaissance
Ġapp ropri
Ġman uscript
Ġout l
Ġte le
ĠCom b
Ġpr erogative
Ġform ing
ĠSh olay
Ġent h
Ġsur pr
Ġ16 6
Ġext ent
Ġinf rast
ull en
Ġann ually
Ġ14 0
Ġtrad ing
Ġconv ection
Ġsk ull
Ġbi ographer
Ġdev ot
Ġresear chers
Ġpoor ly
Ġstation ed
Ġche ck
Ġsat isf
Ġens ure
Ġmom ents
Ġdrum s
Ġdispl ays
onom y
ĠDomin ican
ĠNH L
Ġsubmar ine
Ġreconst ruction
crib ed
ĠDA G
Ġmuscar ia
Ġoverw hel
ĠUsta Å¡
D H
f riend
l ife
r ants
v ati
z ac
in ian
Ġs unk
Ġs aves
Ġw ings
or i
Ġc reek
Ġb rand
Ġd ream
Ġd inosaur
ent ional
ĠC ape
Ġl ose
Ġl oy
Ġl ists
Ġn av
ĠB at
ow iec
Ġst reets
ĠR om
ĠW iÅ
ĠJ enn
ate au
Ġor bit
ant i
og y
Ġint ense
Ġcl ock
Ġab und
ĠAl b
ric ted
Ġj un
ĠSh ow
Ġent itled
Ġtrans ition
Ġob st
Ġext ension
ĠWh o
Ġbel t
ĠBl ood
Ġuse ful
Ġph r
Ġmod ified
Ġdr iven
ĠRec ord
Ġpost ed
Ġinflu ential
Ġdiv or
ĠRich mond
ĠMag gie
Ġste am
ĠMex ican
Ġinj uries
Ġfr ame
Ġmem ory
Ġwithd rew
ĠFI FA
Ġunderst anding
Ġdram atic
Ġbomb ard
Ġemer g
Ġpurp oses
Ġess ential
Ġdyn asty
Ġdoub t
Ġut il
ni owiec
ĠWiÅ Ľ
e ared
h ist
k er
l ie
l ock
n g
o om
u gh
Ġt ests
Ġs aved
Ġc hess
ar th
Ġb ed
ro us
Ġd iplom
ĠS n
il st
ĠC BS
ĠM un
ĠM ach
ĠB ow
ĠB ab
ĠB enn
Ġg ard
Ġas h
ĠR est
and y
ĠE le
Ġr ated
Ġr ates
Ġr idge
Ġpl ane
Ġsh ipping
ack s
Ġsp oke
ĠV II
Ġag o
Ġother wise
te enth
Ġ7 8
Ġ9 00
ug osl
ĠAr k
Ġwrit ings
Ġact ual
Ġform al
Ġsub species
ins on
Ġam mun
Ġ10 1
Ġtra il
Ġsever ely
Ġexp osure
Ġ15 5
Ġorigin ated
Ġinst alled
Ġgener ated
Ġhel icop
Ġrest rict
ĠPar vati
Ġlist en
Ġpar ish
Ġ192 8
Ġeng ines
Ġdem and
Ġsuggest ing
Ġexc ess
Ġfact ors
ĠFeder al
Ġwat ching
Ġinterest s
rest ling
ĠTown ship
Ġcross es
Ġburn ed
Ġinform ed
ĠMo ore
Ġking dom
Ġmaterial s
Ġpers u
itz er
Ġhapp ened
ĠPortug al
ĠIsrael i
Ġlo an
ĠNor way
cript ions
Ġapparent ly
ĠMass achus
Ġjournal ist
Ġpict ure
Ġchair man
ĠJac ob
Ġjack rab
ĠRÃ© union
Ġcircum stances
ĠEdu cation
ekÄģn tav
ĠBark er
ĠWiÅĽ niowiec
Ġammun ition
ĠMassachus etts
D S
w estern
he era
Ġo ri
Ġw ine
Ġc iting
Ġf estival
ĠS id
ĠS ab
il ation
ĠC ec
ac ter
ur se
ĠB aker
ĠB ranch
ĠH amp
ĠH aving
ĠP rom
ĠR oth
ĠD h
ĠD ig
ĠG ary
ĠG wen
ĠL ith
ĠL ang
ĠN iel
ĠE aton
ĠE agle
ore n
ĠIn tern
ĠK im
Ġâ Ĥ
ian g
Ġun like
ok o
Ġcl imate
Ġres ign
ry ce
Ġdis aster
Ġpart ially
ĠY ugosl
Ġcons c
Ġ8 4
Ġrel ie
ind er
ĠSe e
Ġmov ements
Ġimp ossible
Ġoper ate
Ġcar ved
Ġgener als
Ġele ven
ĠDe ath
ĠGu ide
Ġlate x
Ġstar lings
Ġpar as
urric anes
Ġ192 7
Ġcaus es
Ġvict ories
Ġsurv ive
Ġsk y
Ġread y
Ġmix ture
Ġpred omin
Ġburn ing
ĠMin or
ĠMin istry
ĠKh and
ĠWil son
Ġmer ch
for ced
Ġtransport ation
Ġmem orial
ror ist
Ġlay er
Ġcanc er
Ġshell s
Ġinstit ution
Ġinstr uments
Ġthous and
ĠSil ver
Ġbehav ior
ĠHistor ic
Ġdepart ure
ĠRA AF
ĠSwed ish
Ġsubstant ial
Ġoverse as
Ġresist ance
ĠKann ada
ĠUstaÅ¡ e
ekÄģntav Äģda
E C
H g
c ru
d e
g ov
p an
p ut
p son
p iece
r quez
Ġt ack
Ġt urb
in ery
er r
Ġm amm
Ġd angerous
ĠA z
ĠS ans
ĠS up
ĠS oon
ĠC elt
Ġe at
Ġwas n
ĠM idge
ĠM asters
ur st
ĠB udd
ĠB ureau
Ġbe aring
ĠR a
ĠL ast
Ġhe at
Ġsp end
Ġsp ores
Ġres igned
Ġrec ur
Ġro oms
Ġafter wards
we ight
Ġcomm em
Ġte x
ob ile
ĠSe ason
Ġsub st
Ġam ateur
Ġsupp orters
Ġ11 3
Ġ17 8
Ġinst ance
Ġmusic ian
Ġadv is
Ġmod els
Ġ193 3
ont o
Ġrest ored
Ġmar ry
Ġlist ing
Ġwind ows
ĠPer fect
Ġtem ples
Ġelect ronic
enc ing
Ġcompet e
ĠSim pson
ĠPol ice
ĠGl ad
Ġinterest ing
Ġlook s
Ġtechn iques
Ġsqu adron
Ġsequ ences
Ġ186 0
Ġcop y
Ġengine ers
Ġthink ing
Ġtrib ute
Ġestablish ing
Ġdoc uments
Ġaut om
ĠHow e
ĠVer onica
AS A
Ġsaf e
Ġinteract ion
Ġspir itual
Ġopportun ities
Ġstrugg le
Ġpremi ered
Ġbeaut iful
ĠStew art
ĠGil bert
ĠYan ke
Ġcong reg
Ġnick n
ĠMÃ¡ rquez
ĠKhand oba
m ate
t i
u able
z a
Ġ els
Ġt y
in ate
Ġs ale
is ler
Ġb ord
Ġin Hg
Ġp ale
Ġto ll
ro it
Ġm ode
ĠC ob
om a
om ura
ĠThe n
ĠB a
ĠB ah
ĠI ra
Ġfor cing
ĠP ur
ĠD ak
ĠF all
ĠF RE
ul ating
ĠW ag
ĠW right
ĠJ r
op l
Ġpro ve
Ġv ast
ud es
Ġnot ably
ap se
ĠV ul
Ġrec ru
Ġdes ert
Ġatt rib
Ġrem ember
Ġcons ol
Ġcons ervation
olog ies
Ġreg iment
Ġco ins
Ġ12 3
Ġ16 5
Ġmin imum
Ġrep rodu
Ġpol l
Ġart work
Ġart ificial
Ġdesign s
Ġoffic es
Ġ195 7
Ġadv enture
Ġhel met
ĠMc L
Ġstorm s
Ġcr iminal
Ġmy st
Ġsit uated
Ġread ers
Ġrecogn ised
Ġachie ve
ĠTor onto
Ġproper ties
Ġexperi ences
ĠJust ice
ĠMill er
Ġweap on
Ġneigh bor
Ġvess el
ĠJur chen
ĠGirl s
ĠDet roit
ĠPhoen ix
LI MO
ĠMul der
Ġretire ment
ĠMozamb ique
Ġacknow led
ĠSatur day
Ġels ewhere
ĠFRE LIMO
b ook
m it
w ick
z o
Ġ rib
Ġt iss
Ġt anks
re es
Ġs ad
Ġs ons
Ġs ung
Ġf ant
Ġf ountain
Ġb od
Ġb ell
as m
Ġh orn
ĠA ra
ĠS uch
ĠC P
ĠC as
ly n
ĠI mp
Ġg iant
ĠP C
ĠP ot
ĠR en
ul s
Ġal le
ĠG ray
ĠN etwork
ĠE sh
Ġse lection
art e
ĠK y
ĠK ansas
ĠV ice
Ġag ents
Ġen h
ph y
ĠUn ivers
oy age
Ġform at
Ġco oper
Ġfound er
Ġsur g
Ġtra ined
ĠSc ully
Ġdep ending
ather ine
yl ine
ĠWar ren
Ġcount ies
Ġcharacter ized
ĠCan al
Ġstar red
Ġeng age
Ġant ic
ĠMan agement
Ġformer ly
ĠBar ry
Ġwest ward
Ġstat istics
Ġprogram me
Ġground s
Ġrad iation
ĠKe vin
Ġ185 0
Ġfall en
Ġmeas ured
Ġcost s
Ġbur ial
Ġobject ive
Ġfr ig
Ġnetwork s
Ġdepict s
ĠRuss ia
Ġcle ared
Ġbig gest
Ġphot ograph
Ġhol iday
Ġvehic le
Ġexcav ation
Ġremark ed
che ll
ĠJourn ey
ĠAlbum s
ĠMem orial
ĠCole man
ĠBull s
Ġdelay ed
Ġcrop s
Ġcitiz ens
Ġconvin ced
ĠHud son
Ġinfrast ructure
ĠWiÅĽniowiec ki
C h
i ac
n ight
y o
Ã ±
Ġ å
Ġ id
Ġf ert
es h
al ley
ic it
ic ul
Ġm oon
Ġd war
ĠT u
Ġre nder
el lect
ac ec
ĠM uch
ĠB ad
ol en
Ġst yles
ĠP ow
ĠD ave
em ies
ĠG ate
os h
ĠN ob
ain ts
Ġv ul
Ġde leg
Ġr ivers
ĠK ong
ack ed
ĠSt al
ĠSt ories
ell ar
Ġcomp ound
ru z
ru pted
ass ador
Ġres idence
Ġplay off
ĠAn zac
Ġfe athers
Ġdec ides
ĠAr senal
Ġfl ash
Ġ0 2
Ġ0 3
Ġ16 3
Ġdescrib e
Ġins cription
ĠPl at
Ġrest oration
ĠBe h
Ġdiffer ences
Ġ192 6
Ġopp onent
sh ore
Ġclaim ing
Ġsk ills
ĠDav is
Ġfun er
ĠMag dal
Ġste ep
Ġpred ators
ament al
Ġcond em
Ġaud iences
Ġclos est
Ġclear ly
ĠOs car
Ġhous ing
Ġrail road
Ġfr ust
ĠRepublic an
Ġdeterm ine
aval ry
Ġvot e
ĠPet ers
ĠMr s
ĠTre k
Ġdisplay ed
ĠConf eder
igg s
Ġhun ting
Ġrang ing
Ġtun nel
ĠOrigin ally
ĠNever theless
Ġbenef it
ĠPers ian
Ġreserv oir
Ġreinforce ments
Ġcra ke
Ġimpr ison
Ġpredecess or
ĠOrgan ization
ĠInit ially
ĠTerrit ory
ĠProf ess
ĠProtest ant
ĠHok ies
Ġdwar f
M alley
g am
m outh
t a
re p
at ically
Ġc yt
Ġb ones
ic ia
Ġm yc
ou x
ĠT al
ĠC ategory
el d
Ġl ake
Ġe asy
ac les
ĠI SB
Ġg rown
ĠH ay
ĠH ope
ĠP le
ĠW ing
ĠG ro
Ġcom ed
ĠCh agas
ia o
Ġint ellect
ue z
ign ment
Ġatt ained
Ġte en
ĠUn til
Ġpo ison
Ġrel ation
Ġunder w
Ġpr ime
Ġdef ending
Ġ0 1
Ġthere after
Ġsm ooth
Ġinst all
Ġcar go
Ġany one
uth or
ĠAll en
Ġprom ised
Ġprom pted
Ġrest ricted
ĠPar aly
Ġchild hood
Ġsl ide
Ġbre ed
Ġcommand ment
ĠAb by
Ġtem porary
Ġelect ions
Ġarr ive
Ġrepresent ative
ĠEv ent
sequ ently
Ġer r
Ġ190 5
Ġannoun ce
ĠMag ad
Ġpri est
Ġrank ing
Ġarg ues
ĠRock y
Ġrul ing
Ġpers pective
ĠTur ks
Ġadapt ation
Ġasp ect
Ġdeg rees
Ġbad ly
ĠVictor ian
Ġmagn itude
Ġcorn er
ĠCor b
Ġthr one
Ġscient ists
ĠMat hews
ĠCommun ist
Ġrang es
Ġprepar ation
ĠJon athan
ĠChap el
ĠLeg acy
Ã¶ n
ĠLes lie
Ġexclus ively
Ġmoder ate
ĠExp ress
ĠKel ly
Ġfal se
ĠValky ria
ĠWag ner
Ġalle ged
ĠISB N
ĠParaly mp
E FA
a ft
h ire
r aska
s ki
z hou
Ã £
Ġa ster
Ġthe ater
er ies
Ġs now
Ġs isters
Ġw et
or ious
it ively
Ġc ake
Ġc up
Ġc aves
Ġf ate
Ġb ra
Ġb ind
Ġp ine
Ġm ac
Ġh uge
le ton
Ġre vers
ĠA ce
il ty
Ġl at
am ount
Ġn urse
ĠM it
Ġg ates
ol ithic
ĠH ans
ĠP f
Ġbe ar
ra wn
ĠL ud
ĠL amb
ĠN ash
Ġde ity
Ġsu p
Ġex ists
ĠK urt
ĠâĢ ľ
ĠU EFA
Ġsp ur
Ġres umed
Ġman ga
act ive
Ġafter n
Ġoff s
Ġout break
Ġfe e
Ġear n
Ġcons p
Ġtr ust
Ġchar ged
Ġsy mp
ars h
ĠShe l
Ġdisc ip
Ġown ers
Ġnorth ward
ĠHer ze
Ġport rait
Ġexpl o
Ġexpl ains
Ġhand led
Ġdel iber
Ġevery one
ĠAm b
Ġband s
Ġer ected
ĠGl ob
ĠIm ag
ĠEm my
Ġengine er
Ġinj ured
ĠPo ly
Ġamount s
Ġcolon ies
Ġinn ov
AS P
Ġbound ary
ĠOut standing
ĠWater fall
Ġcelebr ated
ĠCat echism
Ġarchitect ure
ĠChe val
Ġadvert ising
Ġstrengthen ed
Ġfat al
Ġbul k
born e
ĠBrook s
Ġrif le
ĠDemocr atic
bur gh
Ġinhabit ants
ĠBert in
ĠNeb raska
ĠTreat y
Ġdeem ed
gov ina
ĠCelt ic
ĠIra q
ĠMagad heera
N L
S P
o es
x ual
Ġthe rap
er g
or able
Ġc ars
Ġc ateg
Ġb ishop
Ġb anned
Ġp y
Ġre nd
om tav
ad ier
ur er
ol ia
iv ated
ot ten
ĠP ryce
ĠD um
ĠD og
un es
Ġal t
ch ar
ĠL et
ĠL ower
Ġan aly
um in
ag en
ate gy
ak i
ak s
Ġch rom
Ġch amber
ĠK am
ok ovic
end en
ĠHe aven
ĠTh us
Ġsc attered
Ġpart ner
ĠY o
int on
ĠAs omtav
Ġ9 2
ug u
Ġrecord ings
Ġsub stitute
ĠRe b
Ġent ers
Ġexp osed
Ġmon uments
Ġ11 7
ĠShe ff
az ines
Ġrev en
Ġins criptions
Ġland ings
Ġwar ning
Ġdesign er
ash i
Ġprom pt
Ġstr ategy
Ġdiffer ence
Ġtri ple
ple te
Ġ192 4
Ġ192 5
Ġdr iver
Ġdem ands
Ġprop ag
Ġprof ile
Ġsound s
ĠHar old
Ġsuper n
ĠMad rid
ĠBus iness
Ġunc ertain
ĠPri est
Ġprevent ed
Ġappl ication
Ġdomin ant
Ġproduct ions
Ġprinc ip
ĠDj okovic
Ġgraph ics
Ġjud ge
Ġpurs ue
Ġdemonst rated
Ġdistinct ive
Ġexcav ations
Ġneut ral
ĠUl t
Ġcollabor ation
Ġtur rets
Ġgar rison
Ġtact ics
ĠMur ray
Ġexec uted
ĠRail way
ĠAlf red
Ġdistingu ished
Ġsettle ments
ĠRif les
eor ological
Ġethn ic
ĠHou ston
ĠNiel sen
Ġtex ts
ĠYanke es
ĠHerze govina
ĠAsomtav ruli
N C
P A
b re
b ox
f ather
g ars
j i
t ah
u z
Ġt enth
Ġa x
Ġc eratops
is p
ar ant
Ġp ap
Ġp ounds
Ġm bar
ĠS S
el and
Ġn urs
ĠM ant
ĠB ible
ĠB rand
ĠB arn
Ġfor ty
ig e
ter ed
us ic
Ġst ood
ĠR ap
ĠW eb
ĠW omen
ĠN L
ĠN av
ĠJ en
Ġhe n
ri or
ĠE xt
Ġsu re
ess ee
Ġk it
ell ite
ost er
ust s
Ġus age
ĠTh ose
int s
Ġcent ers
Ġfe els
Ġchar ity
Ġrele ases
Ġass isted
Ġco in
iet ies
Ġexp ect
Ġ17 0
Ġdown town
Ġcar ri
ĠCar re
erv ative
Ġed ges
Ġconsid ering
ĠDe an
Ġ193 4
app ing
Ġappro val
Ġdra in
ĠAb d
Ġinit iated
Ġamong st
Ġel der
Ġmag azines
ĠSu pp
ĠAng lo
Ġlik ed
ĠBer lin
ĠMad ison
ĠJew s
ĠPhil ip
ĠCorp oration
Ġquarter back
ĠCong o
Ġsubject s
Ġarchae ologist
ĠOver all
Ġindic ating
Ġadop t
Ġtourn aments
Ġbox ing
ĠTenn essee
Ġaband on
Ġtransl ation
Ġsusp ended
ĠCons ervation
ĠHawai i
Ġdefend ers
Ġsuc ceed
Ġsac red
ĠGall ery
ĠIndepend ence
Ġdut y
Ġinterp re
ĠKir k
ĠOrigin al
Ġalter ed
ĠGh ost
Ġpremi ere
Ġstrik ing
Ġresident ial
Ġphilosoph y
Ġmart ial
Ġschem e
Ġemerg ency
Ġcommem or
ĠEsh mun
Ġaster oid
Ġaftern oon
I A
e gr
g ers
p ing
r h
z ym
Ġ ï
Ġt ale
in ations
Ġc ous
Ġf ill
Ġf oss
al og
Ġp ull
Ġto ured
ĠT ok
ĠT ax
ĠA T
ĠA man
ĠS ign
ĠS AS
ĠC O
ĠC ond
el ed
am i
Ġn et
Ġn ations
ur d
Ġg h
ot o
ĠH ills
ow a
ĠD iam
ĠD ah
ĠF em
ra pping
ĠN S
ĠN on
ĠN aval
ĠN DH
ct or
od ore
ri k
ĠO t
ĠO mar
se x
ĠSt av
Ġsp r
ine y
Ġun iform
Ġro ots
act ion
ĠOn tar
ĠAn ne
aw ay
ĠMar iana
Ġco inc
any on
iet h
Ġrece ives
Ġ11 4
Ġconc lusion
az a
Ġimp ression
Ġimp ressed
ism s
Ġgu ilty
Ġvar iation
ĠBe g
app ed
ract ion
Ġperson ality
Ġ100 0
ĠX enon
Ġreal ized
itar ian
Ġcommun ication
Ġcr isis
ĠRoman ian
Ġorder ing
Ġnort heastern
ne ath
ĠEv ans
Ġ190 8
ĠNe xt
ump s
ĠMag n
reg on
ĠMount ains
Ġbattle cru
Ġval id
ĠSw iss
Ġredu cing
Ġcolle agues
Ġfif ty
Ġrespect ive
ĠPe ach
Ġreve al
Ġcrew s
Ġviol ent
Ġ187 0
ĠAg ain
ĠGr ade
Ġtest ing
Ġoccup ation
Ġdi agn
Ġfrequ ent
ĠFin als
Ġsched ule
Ġtalk ing
Ġrequest ed
Ġenvironment al
Ġdefin ition
ĠMic hel
ĠVill age
ĠGi ants
Ġdeliver y
ĠCa es
ĠCub s
Ġelimin ated
Ġrebu ilt
ĠSor ra
ĠLab our
ĠRele ase
ĠWic ca
Ġsimultane ously
ĠProg ram
ĠImag ine
ĠCheval iers
ĠSheff ield
ĠOntar io
P a
b ing
e ign
g ets
j amin
n ership
v ious
w an
Ġs ang
Ġw el
nd a
Ġc otton
al f
as ki
ro se
Ġd ict
Ġd iver
le m
ĠA BC
ĠS ay
ĠC ress
ĠC yr
Ġl amb
ĠM ain
ĠB ush
ĠB anks
Ġg ets
et ime
id el
Ġas ks
Ġst rict
ut y
ĠP ubl
ĠP rest
ĠD D
ĠD or
ĠD ud
Ġis ot
ul u
Ġal ph
ĠL inc
ĠN ear
ĠE y
ĠO regon
op les
Ġpro sp
ard ine
Ġy ield
ip es
ust er
ĠV ic
Ġcomp onents
Ġcl im
pl ed
Ġdis agre
Ġover t
over eign
ang ular
Ġup set
ens es
int ed
ĠAs ian
Ġdec ay
Ġpe aking
ĠLe igh
Ġsur f
Ġsur ge
Ġ12 5
Ġexp ression
Ġmet re
Ġrun ners
Ġoper ates
ĠCar mel
Ġmat hem
Ġgr ay
ĠComm ons
Ġhel ium
ĠChrist ine
by ter
Ġref uge
ĠMc D
Ġvis iting
Ġorgan ised
Ġ192 3
Ġsent ences
Ġsent iment
ĠTr ust
ĠTr acy
Ġtem por
ĠPol it
Ġshould er
ĠHar rison
Ġtre nd
ett les
Ġsuper v
Ġfif teen
Ġround s
Ġren ov
Ġemploy ees
Ġpot entially
ĠSoc ial
ĠRh ys
ĠBen jamin
Ġjob s
Ġnewsp apers
ĠEr nest
ĠHawai ian
Ġwithdraw al
Ġmechan ical
Ġven ues
Ġmolec ules
Ġassass ination
Ġtrou ble
ĠSurv ey
ĠPul aski
ĠAnc ient
Ġrhym e
Ġelabor ate
ĠQueens land
Ġcollaps ed
ĠDak ota
acec raft
ĠEvent ually
ĠLinc ol
E S
a ired
b ound
c i
c l
c hens
k rit
p e
v ant
Ġc ook
Ġc hest
en ic
es ters
Ġp ed
Ġp hen
Ġto m
Ġd ies
ou st
ĠT en
ĠA ut
ĠS at
ĠS ony
ĠS ection
ĠS isler
ĠC ater
ĠC ase
ĠC anyon
Ġn om
ĠM ack
ĠM aur
ĠB ald
ir i
ot yp
ĠH y
Ġst ores
ĠP ir
ĠD ie
un ch
ĠF ace
ĠF arm
ĠW N
ĠW ASP
ĠL ost
ĠN at
ag od
ĠE ric
Ġv ice
ill iant
Ġsu itable
Ġr ide
ard ed
se ud
ĠSt r
Ġsp acecraft
ap ore
ĠCh ron
ĠCh arts
ĠV i
Ġcont ribution
Ġab ol
ĠHe art
Ġsc ar
act s
Ġrem ove
Ġear ning
Ġqu ant
Ġac ids
Ġam ph
Ġent ertain
ern on
Ġdirect ors
Ġext rat
Ġart istic
Ġconst ant
Ġdam s
Ġadv ancing
ĠUS S
ck s
ĠChrist opher
Ġclass ification
Ġpar ody
Ġkill s
Ġant hem
Ġant iqu
Ġexper t
Ġrefer ring
Ġtw in
Ġfact ory
Ġstruct ural
Ġput ting
ĠCo oper
Ġcreat ive
atin um
Ġmach ines
ĠVal ve
Ġask ing
Ġ183 0
Ġdisp ute
ĠSing apore
Ġdro ve
Ġcompl iment
ĠWood house
Ġbound aries
Ġtransl ated
Ġdocument ed
Ġ76 6
Ġinh ab
Ġyoun gest
ĠKore a
ĠChild ren
Ġseek ing
ĠGard ner
Ġcompar ison
Ġcolumn s
Ġtheat rical
Ġvert ical
imet res
ĠSimilar ly
min ster
ĠCampb ell
ĠIslam ic
ĠFound ation
ĠSans krit
ĠSup reme
Ġsurg ery
ĠSorra ia
ĠLincol n
Ġextrat ropical
G rom
f ire
g on
g ian
n els
u a
z ong
Ë Ī
á ¹
Ġ ump
Ġt ub
Ġs ample
at um
Ġc ave
Ġf ishing
Ġf ault
Ġf asc
es i
es ter
Ġb rain
Ġin fer
Ġto oth
Ġto ler
Ġto pped
Ġm ir
Ġm ask
Ġh ook
Ġh ull
ĠT ogether
ĠS omet
ent le
st ar
ĠC red
ĠC ullen
el oc
Ġl ies
Ġl ibrary
ac ruz
ĠB idd
im on
Ġfor th
ir a
Ġst im
Ġst ock
ĠP anz
Ġbe am
un c
ĠW here
ĠW ander
Ġcon j
ĠL as
ĠN el
ĠN atural
ĠN ettles
Ġan ekÄģntavÄģda
ĠJ ason
ĠJ ardine
od rom
Ġr id
Ġr ig
Ġr ising
ak ers
ĠK now
Ġpl us
Ġsh aft
Ġsp ending
Ġnot ice
ĠCh ampions
Ġun lik
ĠV eer
Ġinc lusion
Ġen zym
ens ions
ail s
ĠMar s
Ġprodu ces
Ġsub mitted
Ġco ff
Ġrev ised
Ġcomple ting
ĠBr iggs
enn ium
Ã© e
ĠPl an
Ġeff ic
Ġbr idges
ĠDe ep
Ġref lected
ĠMc E
Ġtri als
Ġorgan isation
Ġexpl ain
Ġperson ally
ĠPr iv
Ġbas es
Ġtw ent
Ġcommun ications
Ġprof it
Ġsol ar
Ġsk et
Ġrepresent ation
Ġprogram ming
Ġ190 7
ĠNe ves
Ġsw im
Ġprofess or
ĠIm m
Ġarm ament
Ġcoll apse
Ġfall s
yd ney
Ġhon our
Ġcontr ad
Ġremov al
Ġarchae ology
ĠPri x
ĠPri ze
Ġsem if
Ġquest ions
Ġbirth day
Ġsat ellite
ĠVer acruz
Ġfavor able
Ġprep are
Ġpow ered
ĠSpec ies
ĠLouis iana
Ġhy g
Ġagg reg
Ġsculpt ures
Ġbattles hips
ĠFurther more
ĠObs er
ĠBelg ium
ĠIng res
Ġencounter ed
Ġseg ment
ĠChronic les
ĠTel ugu
ropol itan
Ġenth us
ĠDig ital
ĠCress well
Ġtempor arily
ĠBidd enden
C O
b ra
e qu
h um
p o
t z
u ki
Ġt or
Ġt ip
in ction
Ġs ailed
Ġw ives
Ġw ishes
Ġf itted
Ġb om
Ġb ore
Ġb are
Ġb oys
Ġto x
Ġm ines
Ġh idden
ĠT y
ĠT ony
ĠS on
il i
ĠC ant
ĠC ass
Ġl iqu
Ġg ap
her ry
ĠD a
ĠD ers
ĠD ub
ĠF reak
ĠL ind
ag ogue
ri ft
ĠE p
ĠE cc
ew ise
Ġor igins
Ġex port
Ġsh ares
ĠâĢ Ŀ
ĠU pper
ĠSt u
rit e
ish ops
ok ing
Ġcl ay
Ġdis band
Ġapp rec
ib l
ĠY outh
ace ae
ph oon
Ġpre tty
Ġup graded
Ġev ident
ose xual
Ġcan al
ans field
Ġbu y
Ġind eed
Ġpubl ishing
Ġ10 5
Ġsupp lement
Ġhigh ways
ĠZ anz
Ġmain land
Ġmet ers
Ġrep air
az er
ah o
Ġrev ol
Ġdisc ussion
Ġgener a
ĠCl inton
ĠPro te
Ġweek ly
yc ake
Ġconf ront
inc ial
Ġ192 2
Ġtrad ed
ĠX II
ĠWest minster
Ġconv ention
Ġarr iving
Ġchart ed
Ġjo ining
ĠReg ister
Ġide al
ĠMag ic
Ġenc l
gr ad
br ace
ĠSw itzer
Ġarm ored
Ġbi ological
Ġobject ives
Ġnomin ations
Ġdisp at
Ġdisp ers
Ġkeep ing
Ġinvestig ation
Ġstrugg led
Ġple asure
Ġemphas is
Ġbelief s
Ġpul led
Ġaccompl ish
Ġemp ire
Ġcho ose
ĠPatt ycake
Ġassemb led
Ġupd ated
ĠAR VN
ĠSi oux
Ġconvers ation
Ġdemol ished
how itz
Ġille gal
Ġjun ior
Ġphr ase
ĠBenn ett
Ġunderw ent
ĠAman ita
ĠCaes ar
ĠDud ley
ĠChron o
ĠNeves inje
ĠDers howitz
ĠZanz ib
X e
d ale
j a
p ower
u zz
y gen
z ed
Ġs ect
it o
it ic
it ter
en ger
Ġf usion
ar ia
Ġb an
Ġp ion
Ġp ace
Ġp ages
ic ians
Ġre ass
ĠA f
Ġth rew
ĠC art
Ġl anes
ad i
ac c
ac re
ĠM all
ec ution
ĠB ird
ĠI an
ot te
ĠH ur
ĠH op
ĠH yd
ĠP ier
Ġbe ings
Ġwh ilst
ĠW ik
ĠG en
ĠG ael
ĠE ight
Ġsu it
ĠK Åį
Ġsh ift
Ġsh orter
Ġsh arp
ip er
Ġres olution
Ġab ilities
Ġro tation
lud ed
Ġj ew
ace ous
Ġfin ale
tern al
Ġfe ud
Ġfe eding
Ġpe oples
Ġinter cept
Ġac ycl
Ġ12 7
ram s
Ġ11 5
Ġsign al
ik k
ĠInd ones
emb ers
Ġcar ries
Ġadv ice
ling er
Ġstr ing
Ġpublic ations
Ġdet er
Ġstar ring
ĠMc N
ĠAnd re
Ġevent ual
Ġpresent ation
ĠWe ir
ĠWith out
ĠPer form
Ġelect ron
ĠCount ry
ĠPark s
Ġgen etic
ĠJack ets
Ġtour ist
ĠKe ith
Ġfac il
Ġfac ility
Ġredu ction
Ġappoint ment
Ġdev ast
Ġreb ell
Ġ186 1
ĠPhil ipp
Ġmer ely
ĠMcC art
Ġ36 0
ĠPo hl
Ġcertain ly
Ġdaugh ters
Ġpercent age
Ġcontroll er
Ġrecover y
Ġpun ishment
ĠCharl otte
ĠColumb us
ĠDef ense
Ġarchitect ural
Ġsout heastern
Ġneigh b
Ġcerem on
Ġillust rated
Ġmeasure ments
ĠBu ilding
ĠArgent ine
Ġadvert is
ĠUs her
ĠId aho
ĠSwed en
Ġreform s
ĠObs erv
Ġnegot iations
ĠAbb ey
Ġcinem a
Ġunn amed
Ġib is
ĠWW F
ĠâĤ ¹
Ġneighbor hood
ĠMit chell
ĠPrest on
ĠWander ers
Ġunlik ely
ĠSwitzer land
R NA
T ube
v an
y ll
Ġt elling
Ġt onn
in Ã¡
re hens
Ġs q
Ġs oci
Ġs leep
is le
Ġb en
Ġb ran
Ġin her
as ks
Ġd od
Ġd uration
Ġh osp
ĠT an
ĠT ales
ĠS au
ĠC ad
ĠC irc
Ġl over
Ġl oud
ĠM k
Ġon wards
Ġon going
Ġg arn
im er
im eter
ig a
ter ior
Ġst ellar
ĠR ick
ĠD over
un a
ĠF ood
ĠW elling
ĠG ill
ĠL ad
ĠL ist
ĠL ane
ĠL essing
ĠN ag
Ġan ime
ri arch
Ġv s
Ġv ir
Ġsu icide
Ġse w
Ġch ain
Ġch icks
ber ry
Ġcomp ens
so ft
ok en
per t
ĠHe alth
ult an
Ġman ip
Ġen emies
Ġoff ering
ĠY ellow
Ġpre f
les h
oy le
Ġthem ed
Ġdec isions
Ġ8 3
ob i
Ġac ute
ĠJo h
uc ky
Ġsupp l
Ġ16 8
ĠZ h
Ġ17 4
Ġsign s
ĠIs esi
ash a
Ġadv oc
Ġbr igades
ĠHer ald
ĠHer itage
ĠChrist ians
ĠPar amount
ret t
Ġhelp ing
Ġcontrol s
osp el
Ġhistor ically
Ġsignific ance
Ġread er
Ġwid er
ĠYou Tube
Ġcirc le
Ġprofess ion
ĠMad ero
Ġclos ure
Ġ35 0
Ġfund amental
ĠÃ ī
Ġill ness
ĠFe el
ĠEver ton
Ġdepict ing
ĠInter change
ĠHo over
ĠTw enty
ĠDel aware
Ġbatter ies
Ġsev ent
Ġmagn etic
Ġelev ation
Ġnin et
Ġagg ressive
Ġpattern s
Ġwa iting
Ġmob ile
ĠNaz i
ĠProv ince
ĠBelg ian
ĠLeon ard
ĠAlbert a
Ġtrav elled
Ġpregn ancy
ĠWalk er
Ġgrav ity
Ġproport ion
ĠTon inÃ¡
pent er
Ġaccompany ing
ĠNad al
ĠArk ansas
ĠCred its
ĠStu art
ĠGael ic
ĠMcCart ney
6 0
C U
c oming
m ont
w here
Å «
Ġt ut
Ġw ish
Ġw ors
Ġc a
Ġc ategory
Ġb ull
Ġp seud
Ġd ual
Ġh o
ĠA h
ĠS yn
ĠS ydney
il a
st ers
ĠC it
ĠC ricket
ĠC anning
Ġl iv
am an
ĠB ou
ĠB uck
Ġg ang
ig er
ĠP ic
ĠP ak
ĠR u
ĠR av
ĠR ivers
ĠD S
ĠD od
ĠD ick
ĠD ram
ĠF if
ĠF alls
ra id
ĠG ot
os ph
ĠL over
ĠL iving
and ra
est yle
Ġr iding
ĠK ate
ĠK au
Ġsh op
Ġsh irt
Ġk id
ĠU tah
Ġsp in
Ġsp ots
ĠV is
Ġcl in
Ġcl er
end ar
Ġro t
Ġper mission
Ġj ury
Ġpart nership
ph ant
Ġshe ar
ath y
Ġass ess
ĠSe attle
Ġacc um
Ġra ising
aj a
Ġtra pped
ert o
inn ers
Ġ11 8
emb le
Ġpass ion
Ġcharacter istic
ĠAd ela
ĠAll osaurus
ys elf
Ġprom in
app y
Ġref ere
Ġcap s
Ġhand ed
Ġcommand s
Ġcommand ers
Ġrequ ires
Ġsimilar ly
Ġfre edom
Ġter rain
hem ical
ĠCent re
Ġ190 2
Ġdestroy er
reg ular
Ġ189 5
Ġval ues
Ġfav our
Ġconn ecting
ĠMad onna
Ġclos ing
ĠKh an
ĠCr usad
Ġdon ated
Ġ184 0
Ġemb arked
Ġindic ates
Ġpair s
Ġgirl s
Ġconflict s
Ġpolic ies
Ġconver sion
ĠCrit ics
Ġplat oon
Ġsearch ing
Ġcanc elled
Ġconcent rated
Ġfarm ers
Ġox ygen
Ġprint ed
Ġunivers ities
Ġprepar ing
Ġstep s
Ġdoct rine
Ġmolec ular
ĠDer ff
ĠWat son
Ġexec ution
ĠHead quarters
Ġsubs id
Ġaim ed
Ġdub bed
Ġexact ly
ĠBul gar
Ġhydro gen
Ġaccur ate
Ġdecor ated
Ê» i
Ġantic ip
ĠStav anger
Ġphen omen
Ġacycl ic
ĠAdela ide
d ream
h ar
n h
p a
r ad
Ġw ore
it ia
Ġf ru
Ġf ulf
Ġf lesh
ar ation
Ġb anks
Ġin ning
Ġto uring
Ġm and
Ġm ental
Ġd ense
Ġd anger
Ġh Pa
Ġre op
Ġre aches
ĠA le
ĠA uthor
st reet
Ġl augh
Ġn ave
ĠM ix
ĠB orn
ĠB apt
ĠB atter
ĠB oys
Ġg or
Ġg ift
ol is
ĠH it
ĠH NC
Ġbe ating
Ġbe ars
Ġbe ats
ĠR ag
ĠR ace
ĠF ut
ĠF ul
ĠG round
rom et
Ġan ch
Ġr ushing
Ġse ats
igh ters
ate ver
ĠK ings
ov a
ast s
Ġcl othes
Ġab road
Ġev olution
Ġev olved
oy d
ild a
als a
ĠAr n
Ġpos itively
ĠLe eds
Ġ0 4
Ġ16 9
Ġtrans mission
ram id
Ġback ing
ĠZ oo
inn ess
Ġmet all
Ġcontin ental
Ġdist rib
Ġoper as
Ġph one
ĠCol l
ĠChrist i
ĠBe au
Ġdet ected
ission ed
ĠMc M
ograph ical
Ġfew er
Ġcr ash
Ġstrong est
Ġsol ution
fic ial
Ġfriend ly
ĠHar ry
Ġadm in
Ġfun ctions
Ġten ure
Ġball ad
Ġmount ains
Ġrank s
ĠMor gan
Ġanim ated
ĠSer bs
ĠIm port
Ġir regular
Ġgold en
ĠDay dream
Ġcivil ians
Ġmaint aining
ĠCorp us
Ġunc lear
Ġwithd rawn
ĠDon ald
ĠAngel ou
Ġfail ing
ĠJer emy
Ġtemper atures
Ġcred it
Ġcred its
Ġlog ic
itch craft
Ġpil ots
Ġinteract ions
Ġpurs uit
Ġintern ation
Ġhar bour
Ġcompos itions
ĠHawai Ê»i
ĠHal o
Ġmel ody
ĠFranc is
Ġrecomm end
ĠBook s
Ġqual ified
ĠHu gh
ĠNight ingale
Ġprison ers
ĠRet urn
ĠCold rum
Ġsole ly
ĠBroad way
Ġwick ets
ĠWy oming
Ġsym pt
Ġwealth y
Ġleuk emia
Ġveget ation
ĠHung arian
sch ild
ĠDesc ription
ĠBase ball
ĠTig ers
ĠDyn asty
Ġverte x
ĠFernand ez
Ġash ore
ĠIntern et
Ġtiss ue
Ġcous in
ĠEcc l
ĠDerff linger
M A
b ro
f e
h t
m ates
u ters
z er
Ã ¬
Ġt ort
at om
or ph
Ġc osm
en ess
Ġf il
Ġb on
Ġp ec
as hes
Ġh ind
Ġh ym
ĠA A
ĠS hip
ĠS ora
am er
ĠM es
ĠM ol
ur as
Ġg aining
ol ence
im a
ig s
ĠH ad
ut her
ĠD w
ĠD ot
ul ates
ĠL ibrary
ag i
od ed
ĠE conom
ĠO w
Ġv eter
all ing
Ġch ampions
ĠK ody
Ġpl atinum
Ġsh r
ĠU ran
our se
orm al
Ġres ol
ĠHe avy
Ġper mitted
ĠAl most
Ġsc re
ric ts
iz ers
Ġover s
Ġact ed
Ġass embly
any a
Ġ10 6
Ġep ic
Ġsur prise
ten ance
Ġnumber ed
Ġ16 7
its u
Ġob tain
Ġrev ival
ĠMay a
Ġinf lict
Ġown ership
Ġsim pl
Ġsuccess ion
Ġsuccess ive
Ġrest ore
Ġincre ases
Ġstar ter
Ġreview ed
amb o
elt own
ĠTr ond
Ġcover age
Ġexc ell
ĠBar bar
ĠRoman ia
Ġvict im
isc us
Ġ190 3
ĠNe il
Ġcou gars
Ġgood s
Ġred e
Ġred es
Ġball s
Ġoccur ring
ĠAct or
Ġident ify
Ġanim ation
Ġ188 9
Ġmeas uring
Ġpen et
leg raph
Ġheav ier
Ġcru isers
ĠAnt imony
under st
ĠYear s
Ġobserv ation
Ġconsist ent
ĠBrad street
ĠTre es
ex p
Ġrein forced
Ġserious ly
Ġtar gets
Ġlif etime
Ġgrand father
Ġadminist rative
Ġwalk ing
ĠAdm inist
Ġwa it
bl azer
Ġdiam ond
ĠJur chens
Ġparliament ary
hu a
Ġbeaut y
Ġvirt ually
Ġbow ling
ĠHon or
Ġpregn ant
Ġsan ct
Ġreleg ated
Ġnob le
ĠTransport ation
ĠBed ell
Ġappropri ate
ĠHamp shire
ĠRoth schild
ĠAra bs
Ġphotograph s
ĠMant ell
Ġinterpre ted
ĠCyr us
ĠXII I
ĠWelling ton
A r
C W
E D
b ow
l ights
z es
Æ °
Ġt aste
in ces
Ġs ings
Ġs ized
Ġs itting
Ġc ode
Ġc rick
en ous
Ġf ame
Ġp p
Ġto urs
ro c
Ġd a
Ġd ust
Ġh ills
st al
ĠC ome
Ġl ad
Ġl umber
Ġn aming
ad h
ĠM as
ĠM ong
ur ance
ĠB oss
ĠI OC
Ġg at
ol in
Ġfor g
ĠH em
Ġst yl
ĠP ole
ĠR Ã¤
ĠD ata
em en
ra v
ĠG w
os ity
ĠL iter
ĠL Ã¼
ĠL ooking
ĠE g
ĠE st
ĠE tty
if est
Ġv ault
Ġse ized
ew ork
Ġsh ru
ĠSt op
ary a
Ġher d
Ġper ceived
Ġsc rap
Ġj et
Ġag ency
Ġatt itude
Ġpre fect
Ġcons ent
ick ing
Ġcan on
Ġreg istered
Ġqu een
Ġra ins
ĠSh im
ank a
row ed
Ġback ed
Ġdesc ript
Ġdep iction
ĠShe ll
Ġrev ived
Ġcontin uous
Ġext end
Ġext inct
ĠBr ight
Ġdown stream
Ġrun way
Ġinf ection
Ġsix teen
Ġgr ade
Ġgu ides
Ġvar ied
ina e
Ġbelie ving
Ġexpl icit
Ġeng agement
ĠMan uel
Ġcapt uring
ĠTr istan
Ġhelp s
Ġ23 0
Ġ24 0
Ġauthor ized
Ġrepresent atives
ĠHar v
rie ved
Ġpri ze
Ġpit ching
Ġpred ict
Ġpromot ional
Ġcomment ing
Ġaud ition
Ġarm ies
Ġflood ed
ĠChristian ity
ĠGr ace
Ġreact ions
Ġsyn agogue
Ġhous ed
Ġ184 9
Ġparticip ate
ĠTom my
Ġblock ed
ĠStud ies
aby rin
ĠCamp aign
ĠColle ction
Ġvot es
Ġparen t
Ġunderst ood
ĠFore ign
ĠHum ph
Ġmor ph
Ġhero es
ĠCont em
Ġhabit ats
Ġkilomet ers
Ġsecret ary
Ġconstit u
Ġquestion ed
Ġdispl aced
ĠRo om
Ġsport ing
Ġchampionship s
Ġroll er
Ġdepart ed
ĠPalest inian
Ġresemb le
Ġtask ed
Ġham per
ĠBru ce
ĠOh io
ĠML B
Ġpuzz les
Ġpound er
ĠLoc al
Ġsudden ly
Ġbal ance
ĠRhodes ian
ĠMarg aret
ĠJoy ful
Ġcloth ing
Ġmanuscript s
Ġbod yline
Ġannounce ment
Ġentertain ment
ĠZanzib ar
Ġhosp itals
abyrin th
C E
c over
m n
u ations
Ä «
Ġs in
Ġs ib
Ġw re
Ġw olf
it ely
it ches
Ġb oot
Ġp ron
Ġp istol
as a
ic us
ĠT roph
Ġre un
ĠA ub
ĠS el
ĠS ant
il is
ĠC y
Ġl umin
Ġe cho
Ġn it
ĠM oon
ĠM orning
ĠI owa
Ġg ene
ir ts
ĠH om
ĠH annah
Ġst abil
ĠP am
ĠR aid
th ren
ĠD ress
ĠD ennis
ĠW rapped
ĠW restling
Ġcon ce
ĠL yn
ĠN M
ĠN ine
ĠJ ess
Ġcom fort
op ing
Ġr ays
oc y
ĠK yle
Ġsh rine
ĠSt ars
Ġle ct
ap ur
Ġun t
Ġun st
ĠV erm
ĠV eg
Ġcomp onent
Ġcomp ilation
Ġres id
ĠHe b
ĠAl g
Ġsc orer
are st
ens ively
we gian
ath a
Ġfl ies
Ġend ors
Ġco aching
Ġ10 8
Ġtrans cription
Ġrece pt
ĠZ agre
Ġmain stream
Ġ15 1
Ġconc ession
Ġob vious
ĠIs le
Ġdist ances
Ġdist ricts
Ġins urg
ĠBl u
Ã© d
Ġbr ut
Ġed ited
ĠBe at
ĠBe eton
Ġappro aches
Ġhum or
ĠÂ µ
Ġrepl ied
ĠChar m
Ġarch bishop
Ġspe aker
Ġconv ey
Ġaff airs
Ġfact or
ĠNe v
br ush
Ġrock s
ĠMon key
Ġfav ou
Ġlack ing
Ġz omb
Ġindust ries
ĠSl ayer
Ġterrit orial
Ġrul er
Ġmult ipl
Ġpers ist
ming ham
Ġmem ories
Ġgra ve
gu ard
Ġden omin
rack s
ĠInter state
Ġcele b
Ġsal v
Ġkick off
Ġtouchdown s
Ġpu ppet
ĠHait ian
Ġresc ued
Ġcandid ates
ĠPop ular
ĠNC AA
Ġfrag ment
ĠBir mingham
Ġfast est
ĠCre utz
Ġteacher s
Ġcompr ised
Ġarrang ements
ĠGreg ory
Ġaer odrom
ĠSk inner
Ġundert aken
ĠHell blazer
Ġdisturb ance
Ġvic inity
ĠBos n
Ġju ven
Ġic on
Ġdepend ent
Ġstrateg ic
Ġabsor bed
Ġfle w
oca ust
Ġtick ets
ĠPalmy rene
Ġrestrict ions
Ġmyst ery
ĠStal ey
Ã¶n en
ĠTok yo
Ġalph ab
Ġmathem at
ikk Ã¶nen
ĠEccl estone
ĠTrond heim
ĠRÃ¤ ikkÃ¶nen
ĠVeg as
j an
n o
n all
s s
u ating
v ent
z ona
Ġt rough
in aw
Ġs weet
Ġw ard
Ġw orn
Ġw rest
at ers
or age
ar io
Ġp unt
ro oms
Ġh itting
ĠT it
ĠT ong
ĠT ree
Ġre ag
ĠA ges
ĠS ultan
ĠC urt
ĠI A
ol ics
id ation
ĠH ong
ĠH air
ĠP agan
ĠR at
ĠR ul
un ning
ĠL ess
ĠL iz
ĠL oy
ĠN i
Ġat op
ĠJ ag
ag s
Ġhe aring
od ium
ĠO st
Ġv ital
ant her
oc al
ĠK le
ĠK rist
ĠSt and
ĠCh an
ĠV ik
Ġinc ur
Ġab oard
ach ute
Ġen orm
vel and
Ġpo ets
ĠMar ie
Ġrel atives
Ġac oust
Ġfour teen
ĠRe agan
ĠJo int
Ġloc ally
Ġpop ul
ĠZ e
Ġmain tenance
Ġ11 1
Ġmin ers
Ġmin imal
Ġext ending
Ġext ensively
ĠBr ack
ty m
ĠPl aces
Ġmat ure
Ġmat ters
Ġph osph
Ġbr illiant
Ġed it
ĠDe ad
Ġjust ice
Ġposs ess
Ġmed al
Ġdr inking
Ġopp osing
ĠOr d
Ġsug ar
lu ence
Ġmemb rane
Ġcur ved
Ġbeh alf
Ġmy ster
Ġ22 0
Ġ26 1
Ġ190 1
Ġ190 6
Ġgen es
Ġpra ising
ĠFeder ation
Ġ189 7
ĠHigh land
Ġcirc uit
Ġaud io
ĠSer b
Ġarg uing
Ġcut ting
Ġtravel ing
Ġmach inery
ĠQu iney
Ġesc aped
Ġbusiness es
Ġpen insula
Ġchap ters
Ġarchae ologists
ĠSing h
ĠMet eorological
ĠOper a
Ġobserv atory
Ġconcept s
Ġconsist ently
Ġbomb ing
ny i
Ġmarket ing
ĠNor wegian
Ġ181 9
ĠTru e
Ġexhib ition
Ġunivers e
Ġrequire ments
ĠSen ator
Ġpict ures
ĠMatt hew
Ġagricult ure
Ġbats men
ĠAri zona
Ġsend ing
ĠCambod ian
Ġhor iz
ĠCle veland
Ġexclus ive
Ġaer ial
Ġlabor atory
ĠKenn edy
ĠArchae ological
ĠPrinc ess
Ġlin er
Ġrub ber
ĠHug hes
Ġtal ent
ĠHob bs
Ġrecur ring
ĠProfess or
Ġintellect ual
ĠCorb et
ĠNav ar
Ġcompliment ed
Ġtub es
Ġconj unction
ĠBapt ist
Ã¬ nh
Ġcrick ets
ĠZagre b
E A
V P
k es
p arts
r ÃŃ
t ime
Ã ¢
É Ļ
Ġ Ä
Ġ æ
Ġa th
in er
Ġs ick
or ic
Ġc ash
Ġf aster
Ġin g
Ġin duct
al i
ing ray
Ġp ushing
Ġm ood
Ġm yself
ĠT ak
ĠA ud
ĠS et
ĠS ox
ĠC u
ĠC rab
Ġe cc
ad uct
ac on
ĠM ond
ĠB M
ĠB ox
Ġas cend
ĠH urricanes
ow ed
ĠR I
ĠD ra
ĠD ance
ĠD oyle
ĠF at
ĠF inn
ĠF iles
Ġal ive
ĠL am
ĠL iao
ĠN ASA
um i
est ed
ag ers
ill er
Ġde als
ĠIn vest
Ġr acing
oc ent
oc ation
Ġex ceed
ear ing
Ġsp awn
ip el
ap ing
ĠCh ampion
Ġun w
Ġun rest
ĠV and
Ġinc om
Ġcomp rom
Ġint r
Ġint egr
Ġcl imb
Ġab use
Ġus ers
Ġus ual
Ġapp ly
over y
Ġen force
Ġim perial
ke f
ens us
Ġcomm enced
Ġshe ep
rib i
Ġall ocated
Ġcent imetres
Ġdec e
Ġdec omm
ĠMar ge
ĠCom edy
ock ing
Ġass ert
ĠSe ven
Ġacc eler
ĠLe ices
ĠLe gend
ĠRe ines
Ġtra ins
Ġtra ils
Ġpres ents
Ġ15 4
ĠJohn ny
Ġmin i
az ing
Ġcomple ment
Ġcould n
Ġdisc ont
Ġoper ational
ĠCar penter
Ġprov incial
ĠPl ateau
ĠCl oud
Ġadv ised
Ġgovern ments
Ġgu ide
Ġgu arant
Ġweek end
ĠGu ine
Ġmar gin
ĠEurop a
omet ric
Ġport r
Ġtrack ed
Ġexpl ore
Ġexpl oration
Ġdem on
Ġleg acy
Ġcour ses
Ġsold ier
ĠAss y
Ġstat ements
Ġobs c
Ġaff il
ĠAtl Ã©t
Ġpred icted
Ġlack ed
ĠPart ington
Ġarg ument
Ġdev ice
Ġmot if
Ġz inc
Ġhost ile
ĠCr ash
Ġ187 8
Ġinvest ment
ĠEgypt ians
Ġtransport ed
Ġtest ed
ĠAnt i
ĠLa ure
Ġaut obi
ĠMet ro
ĠHol ocaust
Ġpresident ial
ĠOper ations
Ġexam ination
ĠTra il
ĠFin ally
ĠJust in
ĠSix th
Ġprec ip
ĠBre nda
Ġdu et
Ġbeat en
Ġfamil iar
Ġcam er
Ġneigh bour
ĠCommun ity
ĠJos Ã©
Ġunivers al
Ġven ue
Ġtim ber
ĠLuc as
ĠWork s
ĠKenn eth
Ġhousehold s
ĠArchae ology
ĠGra ham
Ġenl ar
Ġimmig ration
ĠFlow er
Ġindig enous
Ġstead ily
Ġrenew ed
Ġster e
ĠRoc kef
ĠVul can
ĠKy ra
Ġfuner al
ĠGlob e
Ġpy ramid
Ġreven ue
Ġpropag anda
Ġï »
Ġtom bs
agod a
Ġtwent ieth
Ġcontrad ict
ibl ical
brace let
ht wald
ĠUran ia
ĠHumph rey
ĠContem porary
ĠAtlÃ©t ico
b al
g as
m at
x im
Ġt el
on ian
Ġs av
ed ed
at hetic
or ough
Ġc emetery
ar o
Ġb eds
an ville
Ġp ink
Ġm al
Ġm ate
Ġh i
Ġre ward
ĠS le
ĠS ymph
ĠC ov
ĠC ry
Ġe ating
Ġn ut
ad ic
ĠM yc
ĠM ission
Ġg ri
iv ation
ter f
ĠH ockey
Ġst ap
ay ne
ĠP s
ĠR ic
ĠR af
ĠD al
ĠF ried
od s
ĠE ve
Ġpro ceeded
if eng
ill as
ore t
ĠIn s
Ġr ivals
Ġse as
ud o
ĠK er
ĠK on
Ġpl ed
Ġpl ag
Ġpl ate
Ġpl acing
Ġsh ield
ĠSt at
ost s
ĠCh ang
og an
hed ruli
Ġcl ar
ĠTh ai
Ġ18 00
Ġdis rupt
Ġj aw
Ġen velop
Ġoff shore
ĠY am
ang a
Ġpre st
Ġpo le
iss ions
Ġcan als
Ġret ain
Ġret ail
Ġspec ulation
Ġqu ad
Ġqu iet
Ġqu oted
Ġac re
Ġam id
Ġ10 2
Ġsing ers
ern oot
Ġ17 1
Ġdevelop ers
Ġrep airs
Ġsm oke
az e
Ġcontin u
Ġmay or
Ġdist ant
Ġins ects
ĠBl ues
ĠAust rian
Ġwar ned
Ġair ports
Ġconst antly
Ġ13 1
ĠCol omb
ĠGu ild
Ġport s
Ġport ions
Ġsl opes
ĠMc K
Ġtri o
Ġvis its
Ġappro aching
Ġstory lines
Ġmark ing
Ġleg it
ĠComp uter
ĠComp osition
ĠComp anies
Ġmag ical
Ġconv ict
Ġconv entional
Ġreported ly
Ġpost s
ĠAfric aine
Äģ h
ĠGl anville
Ġpri ests
Ġval uable
Ġconn ections
Ġstudy ing
Ġvol umes
Ġfund ed
medi ate
ĠPlay ers
Ġpers ons
ĠAg ency
ĠSuper man
Ġthreat s
Ġbreak s
Ġminor ity
Ġaut umn
Ġhapp en
ĠFrank lin
ĠRuss ell
awn y
Ġtalk s
Ġcelebr ate
Ġsexual ity
ĠKa ifeng
ĠFer d
Ġconcent ration
laim ed
Ġhom osexual
Ġvo ices
ĠKey s
ĠVill aret
ĠLl oyd
Ġhor ror
ĠRail road
ĠAlf a
Ġcalc ulated
Ġflag ship
ĠMov ie
ĠBern ard
Ġspons ored
Ġign ored
Ġwick et
ĠRem ix
ĠLanc aster
Ġchalleng ing
Ġexha usted
Ġabsol ute
Ġinaug ural
Ġdens ity
Ġtribut aries
Ġdivor ce
arth y
ĠMach ine
ĠCec il
Ġcondem ned
ĠAT P
ĠBanks ia
ĠPir ates
ĠCant rell
ĠMk hedruli
Ġscre ens
ĠTroph y
ĠHeb rew
ĠCharm bracelet
ĠNavar ro
ĠVand ernoot
Ġï» ¿
O M
S h
a ud
b i
d ict
e h
f ish
g ud
i ors
n ik
p et
s is
w all
Æ ¡
Ġ à
Ġt orn
Ġt asks
Ġa f
Ġs aint
Ġs oph
Ġw aves
at ra
it is
it udes
is en
is ations
ar ius
Ġin du
Ġp in
as co
ic ism
Ġd ying
ĠT ell
ĠT ide
Ġre jo
ĠA irc
ĠS ug
ĠS ina
ĠS af
ĠM VP
ĠB es
ĠB illy
Ġg entle
ig ious
ĠH od
ĠH ub
ĠF ord
ĠF ull
ĠF aul
ra its
ĠG ran
ĠG iel
os y
ĠL t
and al
Ġhe ir
ri x
ĠE ug
ĠO ak
ĠO cc
Ġv enture
Ġex ecut
ĠU k
ĠU y
ov es
ĠSt ill
Ġsp o
Ġsp ore
ĠCh and
Ġun less
ĠV ist
Ġcl ergy
orm s
Ġrec onc
Ġsc en
pl ace
Ġman age
ib ilities
Ġen roll
Ġatt orney
Ġfin est
rib le
Ġcent ered
Ġrem ind
Ġkn ocked
Ġdec ide
Ġunder go
ĠCom mer
Ġcol ours
Ġbu oys
Ġdo zen
Ġno ise
Ġsur pass
Ġ12 9
Ġpres erve
Ġpres byter
Ġmon it
Ġ11 6
Ġteam mate
ik o
ĠBr un
ĠBr istol
ĠIs les
ued oc
ĠAust ro
ĠAust ria
Ġship ments
Ġair field
Ġ13 5
Ġpass ages
ĠCl ocks
ĠAd ult
Ġvar iations
Ġmar ch
aim an
ĠYork shire
Ġprog ressed
Ġdr ivers
Ġant agon
Ġrepl acing
Ġtrad itions
Ġsimilar ities
Ġroad way
Ġpolit icians
ĠTe legraph
Ġstrong er
Ġsurv ival
ĠEl gin
Ġ190 4
ĠNe olithic
ĠEx per
Ġbattle field
Ġgrow s
ĠAct ress
Ġ185 7
ĠBer htwald
Ġimpro vement
Ġdev oted
ĠÃ Ĩ
Ġtravel s
ĠMcC arthy
ĠSm all
Ġly rical
Ġtru ly
Ġphys ics
Ġgrad uate
Ġmem orable
ĠCath olics
ĠStud io
Ġflow s
Ġhop ing
Ġcollect ions
Ġsal ary
ĠCommand os
Ġinters ects
Ġess ay
Ġess entially
Ġdu o
Ġemot ions
ĠAv iation
Ġdyn amic
ĠLar ry
bour ne
Ġperman ently
ĠDest roy
ĠBh air
Ġfrag ments
Ġbelong ing
ĠUl ster
Ġmic roscop
Ġboy friend
Ġimag ery
Ġham let
Ġmo ist
Ġreflect ing
Ġoccas ional
Ġstret ched
Ġvert ices
Ġhyp othes
ĠQedar ites
Ġrepeated ly
Ġlin ear
ĠGang es
Ġexperiment al
Ġlov ed
ĠRon ald
Ġsurrender ed
Ġpuzz le
Ġur ged
Ġindig o
Ġconsum ption
ĠRaj am
Ġdiplom atic
Ġjackrab bit
ĠLang uedoc
opl asm
ĠCP S
Ġcooper ation
ĠWN O
ĠNel son
ĠMcE l
ĠFreak um
Ġdeter ior
ĠPerform ance
ĠLover boy
Ġgat hered
ĠAub urn
ĠRul er
ĠLeices ter
ĠRockef eller
ĠSina i
ĠFaul k
ĠGiel gud
c ase
c ially
d ie
e u
f ound
l ane
m ad
o ided
s aku
Ġ urg
Ĩ Ĵ
Ġt on
Ġt ape
on i
re ated
Ġs ic
Ġs tern
Ġs acked
at ch
it uals
Ġc y
Ġc ards
is a
is ons
an elli
Ġp ill
Ġp ush
Ġto ols
ro v
Ġm it
Ġm ild
Ġd ressed
ĠT ar
ĠT ow
Ġre ver
ĠA y
ĠS out
ent ine
ĠC G
ĠC ret
om ic
am s
Ġn avy
Ġn aked
ac he
ĠM h
ĠM ole
ĠB od
ĠB our
ĠB elt
iv an
ir ty
ig adier
ĠH arm
ĠH oll
Ġst ick
Ġst ability
Ġst anz
ĠP rop
ĠP ink
ĠD E
ĠF ast
Ġal g
ĠW ed
ĠW ant
ĠW orth
ĠG ri
ĠG ack
ĠL em
od ox
ĠE arn
Ġv ig
ill es
ak im
ant e
oc ese
ĠK o
Ġâ ĨĴ
Ġsh allow
ĠâĢ ¦
se ason
ĠSt aff
ast ed
Ġsp an
ge on
oun ced
ĠV a
Ġcomp an
ru ption
Ġad equ
ĠHe in
ric us
Ġdis gu
Ġj unction
ĠY ang
ens on
ug s
Ġver ses
Ġsub ord
hes h
ĠLe ad
ĠLe ban
ĠSc out
ĠSc ots
Ġexp and
Ġinv ent
Ġop ined
yl ogen
Ġdirect ing
ĠWh it
Ġland mark
ĠDe vin
Ġpublic ly
Ġconf usion
Ġdest ination
ĠWe ather
Ġmag ic
Ġav iation
Ġav oided
Ġinvol ves
Ġaff ord
Ġplan es
Ġplan ets
Ġgen u
Ġfriend ship
Ġlim its
Ġbar rier
ĠGl ass
Ġnight ingale
Ġfun ny
ĠEx pl
Ġsum mar
Ġsw ord
Ġprocess ing
Ġaccept able
ĠRep resent
Ġce ased
Ġdraw s
Ġnar rator
Ġemploy ment
bor o
Ġviol ation
ĠMont real
Ġgra in
enes is
Ġ184 8
Ġdeal ing
Ġcompl icated
Ġscreen ed
Ġlink s
ĠBrad man
Ġded ication
ĠForm ation
Ġamb assador
ĠRob inson
ĠMill ennium
ĠLo ose
Ġkick ed
Ġang le
Ġseem ingly
Ġdisapp eared
ĠJim my
Ġremark able
Ġmanufact uring
Ġopin ions
Ġbattles hip
Ġtun nels
Ġperfect ly
Ġmyth ology
Ġsufficient ly
Ġevac uated
ĠAnton io
Ġreleg ation
Ġrect angular
Ġpric e
Ġshif ted
Ġswe ep
Ġaccommod ate
Ġprohib ited
Ġsongwrit er
ĠCult ural
Ġdevot ion
Ġbombard ment
ĠYugosl avia
Ġpredomin antly
Ġsubst ance
Ġfert il
Ġdrain age
Ġisot opes
ĠMaur ice
Ġamph ib
Ġbom bs
ĠKÅį saku
Ġtonn es
Ġgarn ered
Ġsympt oms
ĠBarbar ian
ĠShim omura
Ġsib lings
ĠNev ada
Ġenorm ous
Ġath lete
ĠAirc raft
ĠFaulk ner
ĠCret aceous
ĠGack o
a els
b udo
g om
h o
h ous
k o
r ino
u en
z ing
Ġ ion
Ġt ent
in isc
Ġthe r
re z
it ious
Ġc avalry
en ged
Ġf ier
Ġf ires
Ġb old
ro ke
Ġm g
Ġd rift
ou rag
ĠT z
Ġre per
ĠS ac
ĠS ter
ĠS ite
ĠS ax
Ġth ro
ĠC N
ĠC ow
om yc
Ġl ying
Ġn ep
ĠM end
ĠM ile
ur ers
ĠB oot
ĠB eth
ĠB Ã¬nh
ĠI R
Ġg ender
ir m
us an
us kh
ĠP ok
ĠD ays
ĠF r
Ġby pass
ĠW u
ĠW ell
ĠW isc
ĠW itchcraft
ĠG amb
Ġit em
um s
um ph
ĠJ ar
av an
ĠE P
Ġv eloc
Ġr ushed
ab l
qu es
ip h
ap a
ĠCh op
oun ters
Ġcomp rehens
Ġcomp uters
Ġher itage
Ġab n
ach ment
Ġdes per
ph one
Ġev al
Ġwe igh
ons in
Ġcol ors
Ġrele asing
Ġmov ies
ros aurus
ĠSh aw
Ġpop ulated
Ġ17 2
Ġ17 3
Ġext ends
ĠBr igades
ĠCon stitution
Ġimp osed
Ġmil k
ull ivan
Ġwar n
Ġwar fare
Ġadv ances
Ġgovern ed
Ġvar ies
Ġvar iable
Ġhal ted
Ġdem anded
ĠBro ther
Ġexper ts
ĠX ook
ĠX box
Ġreal ised
Ġelect rical
Ġcompet itive
Ġter r
ĠEd ge
Ġlim estone
Ġbo il
ÃŃ n
ĠSw ord
ĠMon th
Ġ185 4
Ġ185 6
ĠBer g
ĠIm budo
Ġimpro vements
ĠMed al
Ġcut s
ĠÃ į
Ġmer c
Ġlearn s
ĠMont fort
Ġcal iber
ĠPo et
Ġcycl ones
oul i
ĠMa hesh
Ġparticip ants
ĠFilm ing
ĠFI T
ĠPet e
ows ki
ĠMal ays
Ġlands cape
ĠJul ian
Ġwalk s
Ġweaken ing
Ġoffer ings
ĠTod d
Ġaltern ate
Ġdefend er
ĠDef ence
Ġgrass es
Ġsac rif
ĠSen ate
Ġspot ted
Ġsens itive
atur ally
Ġcollabor ated
ĠGard en
ĠLiber al
ĠGab ri
Ġpet ition
ĠRay mond
Ġopt ions
Ġcab inet
Ġhighlight ed
Ġimmig rants
Ġlic ens
ĠNap ole
ĠOffic ial
Ġchalleng es
ĠTechn ology
urrent ly
ĠNichol as
ĠComb at
Ġsurpr ised
Ġhelicop ter
Ġrelie ved
ĠGlad stone
Ġvul ner
ĠPf aster
Ġsup reme
Ġdeliber ately
Ġtherap y
ĠBeg inning
Ġhyg romet
Ġliqu id
Ġdisband ed
ĠWik iped
ĠPak istan
ĠDw ight
Æ° Æ¡
Ġacoust ic
Ġinduct ed
Ġdecomm issioned
ĠUy gh
ĠEarn est
uskh uri
ĠWisc onsin
Æ°Æ¡ ng
b its
e ven
s ay
Ġt awny
Ġo ct
or f
Ġc ats
Ġc attle
en burg
Ġf art
Ġb ol
Ġin ver
al iation
ing e
Ġp ian
Ġp aying
Ġm ud
Ġm entions
Ġd awn
Ġd ancing
ĠT un
ĠT otal
ĠA L
ĠA N
ĠA ction
ĠS ey
ĠS MS
st s
Ġl ig
Ġl ie
Ġn ic
ĠM P
ĠM embers
Ġg ran
Ġg usts
et heless
id ance
Ġfor b
ot ing
Ġas ide
ĠH i
us a
Ġst all
ay an
ĠP il
ĠD ian
Ġis n
ĠF und
ĠW as
ĠW ard
ĠW ald
ĠG ross
os o
ĠL in
ĠL ear
ĠL oren
ĠN a
ĠN u
ĠN ik
ĠN uskhuri
um ble
ĠE c
Ġde er
Ġde alt
Ġr ush
Ġr ituals
Ġch anc
ĠK ub
ĠK atherine
Ġsh all
ĠSt akes
ĠSt yle
ĠSt rapping
Ġy d
ĠV ishn
Ġbut t
so le
Ġint act
Ġcl ust
ass ed
Ġres ur
Ġper ception
land o
iz er
Ġplay able
Ġafter math
ib an
Ġen abled
ress ions
ang le
Ġatt ending
Ġout standing
Ġpre t
Ġsec ular
Ġrem inisc
Ġkn ee
ick en
ĠEn ergy
Ġspec ulated
Ġacc us
Ġinter c
ĠLe vel
Ġ10 9
Ġent ert
Ġ12 00
Ġtrans formed
Ġadd ressed
Ġdesc ent
Ġinv aded
Ġmet ric
Ġmin isters
Ġext ant
ash ire
ĠSp e
Ġadv entures
Ġhead ing
ĠAd ri
Ġgu err
Ġgu idance
Ġprom ise
ĠGu inness
ĠPar anth
ĠOr lando
ĠTr inity
be at
Ġtem po
Ġel d
ĠAm yl
Ġcommun ist
Ġmy el
Ġcompet ed
Ġarr ives
esc ope
Ġsk ill
Ġaff ect
Ġpress ed
Ġdiv ines
ĠBlack s
ĠBlack ie
Ġcast ing
ĠHar ris
Ġlaw yer
Ġdecl aring
Ġ189 4
Ġ189 8
Ġconn ects
Ġcirc ular
ĠMor o
Ġcomment ary
Ġ185 1
Ġrecogn ize
Ġestim ate
ĠBer gen
Ġ188 1
Ġflood s
ĠMont gom
Ġunc le
Ġ183 2
Ġrap e
ĠNot e
ĠVar gas
Ġap artment
ĠGreat est
Ġcas em
ĠTer ry
Ġconcern ing
ĠRh ode
Ġexam ined
Ġflow ers
Ġlab our
ĠHum pty
ĠLo ch
umber ed
umber land
ĠPit ts
Ġcrowd s
ĠFer r
ĠAtt ack
ĠReview s
Ġqual ifying
Ġportray al
ĠColon ies
Ġexhib ited
Ġdissip ating
Ġthir teen
ĠRet rieved
Ġcompr ising
ĠAp art
ĠDer by
ĠNaz aire
ĠDar win
Ġ73 7
ĠGab bar
ĠMot or
ĠMaria h
ĠWall ace
Ġaltar piece
ÅĤ aw
Ġsubt ropical
ĠGang anelli
ĠBrazil ian
ĠKat ia
ĠPu erto
Ġvolunte ers
Ġble nd
ĠPerson al
Ġrecre ational
ĠPA VN
ĠLanc ashire
Ġpreced ing
Ġexha ust
Ġdivers e
Ġinterpret ation
Ġoverwhel ming
Ġmerch ant
Ġreservoir s
Ġconsp ir
Ġcateg ories
ĠTax onomy
Ġrebell ion
Ġinternation ally
exp ected
ĠÂµ m
ĠBrack nell
Ġmyster ious
ĠGuine a
ĠRajam ouli
ĠMcEl roy
ĠMh alsa
ĠÃį mar
Ġhygromet ricus
ĠParanth odon
ĠMontgom ery
b ach
k ed
l ide
m em
m ers
p ack
p ike
t aker
u ber
w a
Ä ĥ
Ġ Ø
Ġa rose
Ġthe sis
er b
Ġw ished
Ġw onder
at ters
Ġc u
Ġc el
Ġc akes
Ġf est
es que
Ġb in
Ġb ron
al and
Ġp ig
Ġm os
Ġd ad
Ġh ockey
ĠT at
ĠT alk
Ġre h
Ġre verse
ĠS it
ĠS NL
ĠS ullivan
ent in
il and
ĠC admium
el ing
Ġn ose
ĠM ail
ĠB ry
ĠB ased
ol ar
ol ph
ig on
ter y
ter ing
ĠH osp
us ade
Ġst alk
ĠP el
ĠP ra
ĠP and
ĠP ast
ĠR and
ĠD oc
ĠD ÃŃ
ĠD awn
ĠF ather
Ġal ignment
ĠW ave
Ġcon form
Ġcon ven
ĠG ene
ĠN EA
ct ic
ist ical
od ont
Ġde Grom
pt s
ĠK an
ĠK al
qu is
qu est
ov il
ov ac
ĠSt art
Ġle agues
ap ter
ap olis
Ġun re
Ġun expected
Ġinc red
Ġdis lik
iz ong
Ġj ur
Ġpart ners
Ġag es
over ed
Ġout s
int age
Ġcons ervative
ĠAr cher
Ġass erted
ĠSe an
ĠLe in
Ġco at
Ġco aster
Ġind irect
Ġ10 3
Ġtrans its
Ġinv itation
Ġ15 2
Ġmet aph
Ġrep et
Ġext r
Ġimp ressive
Ġins isted
ĠBl oom
Ġthough ts
ĠSp ir
Ġadv ent
Ġbr ings
ĠFor b
Ġbatt ing
Ġprot esters
Ġmar ched
ract ed
Ġsl ave
Ġpar ad
Ġbre ad
Ġorgan ic
ĠThere fore
Ġdeb t
Ġreal istic
ĠBar on
Ġposition ed
ĠPark er
Ġstat ue
Ġinvol ve
Ġwant ing
ĠDav ies
Ġsit uations
Ġord inary
Ġgen res
Ġlight s
Ġrad ius
Ġdestroy ing
Ġtour ists
Ġ189 1
Ġmount s
ĠMon ten
omm un
Ġcommer ce
Ġcommer cially
ĠMed ieval
Ġ188 2
Ġce ase
Ġdraw ings
Ġz ones
Ġhost s
Ġ186 5
ĠCr im
ĠÃ ħ
Ġrespons es
ĠQu inn
Ġhon ours
Ġinterview s
Ġinterview ed
Ġreact or
Ġeduc ational
ĠArt ist
Ġoccup y
rag on
back s
ĠTer rorist
Ġens emble
Ġscript s
Ġcounter att
Ġlo op
Ġprinc iple
Ġlay ers
Ġgraph ic
Ġpath s
Ġconfir m
Ġang ry
Ġjump ing
Ġemot ion
Ġelev ated
Ġelev enth
Ġfarm ing
Ġtorpedo es
Ġrat io
lam ation
Ġweak ness
Ġfear s
Ġscholars hip
ĠLl osa
ĠDen mark
Ġhonor ary
Ġpul p
Ġaccompl ished
Ġelimin ate
Ġplatform s
Ġwitness es
Ġdecre ase
Ġtrav elling
ĠStew ie
ĠYe ovil
Ġinstrument al
Ġrevolution ary
ĠChronic le
ĠElect ronic
Ġorchest ra
Ġteach ings
ĠGib son
Ġansw er
Ġastronom ers
Ġfram ework
Ġdinosaur s
Ġloy al
ĠCob ra
ĠMcL aren
Ġacknowled ged
Ġrevers ed
Ġsupern atural
ĠJen kins
Ġbattlecru isers
Ġinhab ited
Ġcoff ee
Ġsemif inals
Ġpion e
Ġadvertis ements
ĠFif th
ĠBatter y
Ġredes ign
Ġhamper ed
ĠAlg ernon
ipel ago
ĠRaf ael
ĠFast ra
Ġveloc ity
ĠDÃŃ az
4 0
B O
e le
f l
g s
h and
i Ã¨
j ib
v y
Ã ´
he rent
Ġa ided
in and
on ation
on so
Ġo l
Ġw inners
Ġc ro
Ġc able
Ġf ed
Ġf ab
Ġf iled
ar r
Ġb ath
Ġb oss
Ġb ills
Ġp uma
ĠT ag
ĠT ang
ĠT ob
ĠT ai
ĠT uck
ĠA w
ĠA x
ĠA ff
ĠS ic
ĠS our
Ġth rown
st own
st app
Ġe agle
Ġwas te
ĠM int
ĠM aid
ĠM aj
ur u
Ġg am
Ġg ospel
id ated
id ia
ig ible
Ġas c
ĠH end
ĠH ang
Ġst aged
Ġst aying
Ġst orage
ĠP a
ĠP esh
ĠR al
ĠR ut
ĠR ub
ĠR NA
th i
em ark
Ġwh atever
Ġal co
ĠW ol
Ġcon ceived
Ġcon sole
ri ors
ĠIn side
Ġr amp
Ġch ord
ab ad
ber ger
Ġex em
Ġex terior
ĠK aiman
Ġsp ar
Ġsp ell
Ġsp elling
ost ere
ĠCh u
Ġun con
ĠV I
ĠV e
ĠV o
ĠV oyage
Ġint eg
ould er
Ġher b
Ġro ut
ĠTh omp
ric e
lud e
Ġdes ired
Ġen act
ke eper
ang el
Ġout d
Ġcent res
ious ness
iss art
Ġfe ared
ail ing
Ġtr unk
oth ic
Ġrel ax
Ġme at
Ġsub d
Ġsub urb
ĠNew port
Ġco ined
ros aur
uc ks
Ġfound ing
Ġbl amed
Ġdep uty
Ġstud ios
Ġ15 6
Ġop ens
ĠAfter math
uch i
Ġdevelop er
Ġdevelop ments
Ġconc lus
ĠInd ies
Ġdist ort
Ġprov ision
Ġsix ty
Ġadv ocated
Ġele phant
Ġgovern ing
Ġann oy
ĠNorth umberland
med e
ĠJan et
ĠBe ing
Ġlast ing
Ġconf ron
Ġconf used
arn ation
ple x
Ġprog ression
inc l
Ġhand le
Ġmark ets
Ġdeb ated
ĠTr ad
Ġexc iting
ĠPer on
Ġtw ins
Ġel ite
ĠEd ition
Ġaff ecting
Ġgl ac
Ġrad ar
Ġrad ical
Ġbar rel
ump ing
ĠEx eter
ĠEx ecutive
ĠEx ped
Ġenc ourag
Ġtro op
Ġdiscover s
Ġdecl aration
Ġvill ain
Ġsw itch
Ġ189 6
Ġentire ty
br idge
Ġcampaign s
Ġcomment ators
Ġident ical
Ġagre es
ĠBer k
Ġlack s
Ġcor rid
ĠMed ical
Ġround ed
cast le
ĠBo at
Ġ186 2
Ġcost umes
ĠMary ang
Ġachie vement
Ġpers isted
ĠFe z
Ġpain ter
Ġgrad uated
Ġmem oir
ĠArt illery
Ġparticip ation
ship s
rat ch
Ġappl ications
Ġsat ir
Ġfrequ ency
ĠVer stapp
Ġdeep ly
Ġri ff
Ġlog s
Ġbomb ers
Ġfocus es
ĠJam ie
Ġjud o
Ġmur d
ĠBob by
ĠGo at
Äģd v
Ġvocal ist
Ġathlet ics
Ġdyn am
ĠAnn als
Ġextra ord
Ġmess ages
Ġprint ing
ĠPop M
Ġexhib it
Ġemphas ized
Ġfung i
Ġbelong ed
Ġtarget ed
Ġrestaur ants
ĠLiber ty
ĠAthlet ics
ĠFre edom
ĠBru ins
Ġsail ors
ĠSha olin
Ġpropos als
bo ards
Ġplum age
ĠInt ellig
Ġsubmar ines
Ġcorrespond ing
Ġmut ual
Ġfair ly
Ġenl isted
Ġaware ness
Ġdrug s
ĠPu ppet
Ġsym met
ĠCampb eltown
Ġgall ery
ĠDur ham
Ġske let
Ġgather ing
ĠWolf pack
Ġanth rop
Ġcens us
Ġabsol ut
Ġpatrol s
Ġbor rowed
ugh t
Ġgard en
Ġbord ers
Ġrecru ited
Ġfrig ates
ĠBeh ind
ĠMagdal en
Ġbind ing
Ġrend ition
ĠPanz er
Ġeffic ient
ĠPriv ate
Ġaggreg ate
Ġenthus i
Ġdispat ched
ĠMcN ichol
ĠJoh ann
Ġadmin istered
Ġbon us
ĠAdminist ration
ĠGw end
Ġunst able
Ġalphab et
Ġcamer as
ĠFerd inand
Ġnep hew
Ġcomprehens ive
ĠWikiped ia
Ġreminisc ent
ĠAmyl ostere
ĠThomp son
ĠVerstapp en
I V
O S
S U
c ont
i u
l ass
l ides
m o
o ons
v or
Ã º
Ġ ãĥ
Ġ ãģ
Ġ ãĤ
Ġ ËĪ
Ġt ennis
Ġs le
Ġs ink
Ġs aving
Ġo ribi
Ġc od
Ġc ock
Ġc orpor
is ive
Ġb ush
Ġp ose
ic ial
Ġd ign
Ġh arsh
Ġh urd
le ans
ĠT rou
ĠT yp
ĠT imb
Ġre organ
ĠA way
ĠS ag
ĠS ri
ĠS port
ĠS EC
Ġth read
Ġth orough
ĠC lear
ĠC emetery
Ġl ib
Ġn as
Ġn ice
Ġn aturally
ac ements
ĠM I
ĠM om
ĠM ak
ĠM ap
ĠB ach
ĠI TV
et ics
id al
Ġfor get
ig hed
ig ger
ĠH old
ĠH akim
us hes
Ġst ress
Ġst ingray
ith s
ay ana
ĠP as
ĠR an
ĠR ook
ĠR uth
em i
ĠF u
ĠF le
ul ator
ĠW ells
ra ined
ĠG a
ĠG uth
ĠG ao
ĠL at
ĠN F
est ock
ag h
od erm
av ian
ĠE ch
ĠE CU
ĠO ri
Ġpro xim
Ġch ances
Ġor al
Ġex ile
ĠK r
ĠK ur
qu et
Ġâ ĺ
Ġsp ear
ĠCh au
Ġinc ons
ub le
Ġab st
Ġrec ount
ĠTh an
Ġsc ope
Ġsc ores
Ġdis abled
Ġman ifest
Ġman eu
Ġover come
ph an
ĠUn it
Ġall iance
ĠAn y
Ġpo etic
ail and
Ġdec oration
oth y
Ġcan ons
Ġne arest
Ġfl av
Ġfl own
Ġass um
Ġinter vention
ĠLe o
ĠJo an
Ġdo ors
Ġ10 7
Ġbl ind
ĠSc he
air n
Ġmin ing
Ġrep orter
Ġdif f
ĠInd u
au x
Ġpol ar
enn e
Ġph ylogen
erv es
ĠCl ay
ĠCl air
ĠComm odore
ĠEu ro
ĠNorth west
Ġmar g
ĠPar achute
Ġconf idence
Ġref uses
Ġsl ip
ĠAnd r
Ġbre eds
Ġexpl ored
Ġexpl aining
Ġhand ling
Ġsuggest ion
Ġdeb ris
Ġtot ally
Ġdel ight
Ġcr usad
Ġless ons
Ġstat ues
Ġaff air
Ġeight een
ades h
Ġer ror
ĠReg iments
Ġintrodu ces
Ġblack s
Ġhuman ity
Ġenc ounters
Ġmix ing
Ġsw it
Ġ189 3
Ġ189 9
Ġcoast line
ĠSec urity
ĠCare er
Ġconn ect
ĠMor itz
Ġknow s
Ġsex ually
ĠOther s
Ġestim ates
Ġarm oured
Ġarg uments
Ġaccept ance
eal ous
Ġcontract s
Ġsuff er
ita ire
Ġ187 4
ĠGr ant
Ġwood land
Ġsubject ed
ĠSch m
ĠUnder neath
ĠSy ria
unt a
Ġcontem por
Ġguitar ist
ĠForm er
Ġprinc ess
Ġfocus ing
ĠTw ins
Ġult imate
ĠSoviet s
Ġsymb ols
ĠBre thren
Ġhol es
Ġdisapp ear
Ġdemonst ration
ĠEngine ers
ĠTri p
Ġox ide
ĠJos hua
ĠCap ital
ĠMD OT
ĠBu en
Ġfunction al
Ġrom ance
Ġattend ance
Ġintellig ent
Ġlabel ed
ĠGre ater
ĠIndust rial
Ġfox es
ĠCarl os
Ġec l
ĠClass ic
Ġexped itions
Ġmist aken
ĠMur phy
ĠAri k
ĠMu ham
ĠEll is
ĠSus que
Ġmig ration
Ġ97 8
ĠUN ES
ĠJud ith
ĠIng ram
Ġwitness ed
ĠRow ley
aver y
Ġreconst ruct
Ġrif les
Ġexplos ive
ĠCop ia
ĠSav age
Ġru ins
Ġexerc ise
ĠMarsh al
Ġsynthes is
ĠAld ean
Ġsam ples
Ġcul m
ĠCru iser
Ġdepos its
Ġimplement ed
ĠÅ Į
chang ed
Ġoverwhel med
Ġabund ant
Ġabund ance
Ġobst acles
Ġlisten ers
ĠLith uan
Ġturb ines
Ġnickn ame
Ġfant asy
ĠUnivers al
Ġrender ed
Ġplayoff s
ĠDum pty
Ġprompt ing
Ġhen ce
ĠDiam ond
tz ow
ĠImport ance
Ġsanct uary
ĠLÃ¼ tzow
Ġdescript ions
ĠCurt is
ĠIA AF
ĠHair an
ĠChan ology
Ġincom plete
ĠVist ara
ĠBhair ava
ĠTz u
Ġreper to
ĠSax on
ĠNapole on
ĠLein ster
ĠGuth rie
ĠGao zong
Ġproxim ity
ĠUNES CO
Z AC
b u
c le
c ut
c os
c ock
c ope
m usic
r ut
s ville
u ania
Ä į
Ġ Ð
Ġt s
Ġt ag
Ġt ong
Ġt une
Ġt ales
in ich
in ating
re ation
or ith
or rh
it ars
Ġc yl
Ġc ooking
an us
Ġin e
ing ham
as ant
Ġm ere
Ġm aps
Ġm RNA
Ġd ug
Ġd ull
Ġd ining
Ġd imin
Ġh ide
ou b
ĠA S
ĠA ren
ĠS T
ĠS ud
ĠS ang
ĠS uez
il ogy
ĠC all
el ope
om al
ad ir
ac o
ĠM ut
ĠM ets
ec e
Ġg ram
iv orous
ĠH and
ĠH ave
ĠP resent
ĠR ud
ĠR ound
ĠR ush
ĠD ry
ĠF al
ĠF il
ĠF ig
ĠF let
ĠF isher
ĠF lying
ĠF ountain
os omes
ĠL iam
ĠN OK
and in
Ġan ger
ĠE U
ĠE aster
ĠO k
ĠO ke
ĠO jib
op y
op ol
ĠIn v
ĠIn gr
Ġse ed
Ġse ated
ard i
Ġch ann
Ġor ange
ab a
Ġex ternal
ĠK u
ĠK aw
Ġk W
ov ed
ĠSt ones
Ġsp or
Ġsp oken
ap y
Ġwhe el
Ġcl iff
ass y
Ġrec ip
Ġro ot
ĠTh ailand
ĠAl ph
ition al
Ġdis char
ach t
ĠY oko
Ġup r
ĠAn im
ĠAn sel
Ġrem ake
Ġdec iding
ug g
ĠMar ily
Ġrel ied
ob ee
Ġret reated
ĠNew found
ins ky
Ġ10 4
uc lear
velop ed
ton a
Ġexp anding
Ġtrans form
Ġtrans mitted
Ġem ig
ful l
Ġmon ster
ik h
Ġins ult
ĠGer ald
Ã© l
ĠWar rior
ĠCar roll
Ġpass enger
Ġdam ages
Ġgr ace
Ġed itions
Ġpoint ing
ĠDe al
Ġdet ect
ĠEurop ium
Ġport raits
ech obee
Ġsl aves
ops is
Ġorgan isations
Ġexpl an
ĠFl air
ĠOr leans
ĠPer iod
Ġelect ro
Ġevery day
Ġcur ve
ĠGener ation
Ġcompet ing
Ġless er
arm a
Ġjo ins
Ġhuman itarian
ĠPal mer
Ġbo om
Ġ189 2
Ġlik ewise
ĠMon ument
ĠMon ica
Ġassoci ate
Ġ185 9
Ġaver aged
Ġsepar ately
Ġimpro ving
Ġspecial ized
Ġmater nal
alt ies
Ġce iling
ĠMark et
ĠHel en
Ġdon ations
ĠNot able
Ġbreak down
Ġstop ping
Ġcru cial
ĠMet all
Ġprevent ing
ĠJer ry
ĠTur key
ĠArch bishop
Ġconsider ably
Ġkind s
Ġdig it
ĠRob yn
ĠOut side
Ġlif ted
Ġinters ections
Ġchall enged
Ġsusp ected
ĠDam age
ĠJul io
ĠKa hn
ĠConf ession
ĠDo of
ĠDo ctor
ĠHal f
Ġdraft ed
ĠFer ry
ĠJos h
Ġjournal ists
ĠConstant in
Ġremix es
Ġminer als
ĠSub sequently
ĠKar l
Ġstrike outs
Ġimag ination
ĠBas ement
ĠAdv entures
Ġreflect s
Ġcraft s
ĠCub a
Ġsumm ary
ĠBi ography
Ġdistingu ish
Ġseg ments
Ġinstrument ation
ĠDom nall
ĠSa igon
Ġstream s
Ġconsequ ence
Ġbes ie
ĠCru ise
ĠOffic er
ĠHor iz
ĠUr ban
Ġpersu aded
ĠLith uania
Ġmamm al
ĠBudd hist
ĠReb bie
Ġprincip les
isp here
ĠRap ids
ĠObser ver
Ġbare ly
Ġdispers ed
ĠCad ets
Ġninet eenth
Ġphenomen on
Ġexcell ent
Ġfavou rite
tym ology
Ġhoriz ont
Ġdiscont in
Ġhi atus
ĠAN ZAC
ĠLoren zo
ĠStart ing
ĠCrim son
ĠPesh kin
ĠRal ph
ĠKaiman awa
ĠExped ition
Äģdv Äģda
Ġâĺ ī
ĠSusque h
ĠOke echobee
ĠIngr id
ĠMarily n
ĠNewfound land
a ic
a os
a uc
a ude
b one
b led
g gy
j in
l ore
m und
n ance
r un
Ã «
Å Ħ
Ġ é
Ġt ies
Ġt ends
in ter
er ia
re ction
or ia
it ate
it all
it ating
en z
Ġf ing
Ġf isher
Ġin hib
Ġp ir
Ġto y
ro st
ic ing
Ġm ad
Ġm old
Ġd anc
Ġd read
Ġd ads
ĠT a
ĠA ires
ĠS incl
ĠC ann
ĠC lement
ĠC hemical
Ġn aut
ac rit
ĠI l
Ġg ains
ol ly
ĠH ond
ĠH ern
ĠH utch
Ġst ump
ay ed
ĠP D
ĠP ion
ĠP ear
ĠP omp
ĠR ey
ĠR OK
th odox
ĠW ang
ĠG and
ĠG ry
ĠG othic
os ely
ĠL im
ag ger
ĠE ps
Ġpro be
Ġpro of
res cent
Ġv ent
ĠIn formation
Ġch ase
ab out
ĠK et
ĠK od
ĠK end
Ġk iss
ĠSt ansfield
ast ian
Ġle ather
ip ality
ell or
ell ers
ĠCh ile
Ġun l
Ġun rel
ĠV isc
Ġcomp aring
Ġcl ad
Ġres olved
Ġrec apt
Ġrec ruit
Ġrec alls
ĠTh ing
Ġper c
ult y
Ġdis order
Ġag encies
ĠY et
Ġout p
ens hm
als ock
Ġsec uring
Ġrem ote
ĠCom ics
ĠCom air
ĠAr be
Ġreg ister
Ġpe er
ĠSh adow
Ġthere by
other apy
Ġ12 6
ĠSc andin
Ġdep ends
Ġ11 9
Ġmill ions
ĠInd olence
ĠMay or
Ġinf l
Ġinf ected
enn ial
Ġprev al
amed u
Ġcar n
Ġ13 7
Ġmod es
Ġcharacter ised
Ġgu itars
Ġann ex
ĠFran z
Ġconf ident
ĠMus ical
Ġpar ade
Ġbre ast
Ġdr ink
ĠPr im
Ġdem anding
Ġdem ographic
ĠMan or
Ġview point
ler oderm
Ġtrad ers
ĠChar an
ĠChar acter
ĠTr ade
ĠTr uth
enc er
Ġprof ound
Ġsol itaire
Ġter rorist
Ġsomet ime
ogn s
rest rial
gr im
Ġsuper st
Ġfight s
ĠMor ris
Ġ188 8
Ġ35 5
ĠBo om
Ġ186 3
ĠEm ma
Ġachie vements
ĠWil f
Ġ187 7
ĠApp ro
Ġcontr ace
Ġ183 6
Ġblock ade
Ġfail s
Ġdro wn
ĠMer ri
ĠMet ropolitan
ĠRes erve
inent al
ĠBey ond
Ġattract ive
Ġhop es
Ġacqu is
ĠDel ano
Ġthrow s
Ġsal mon
ĠCommand ments
ĠCont rol
ĠCast ing
Ġhot els
Ġinvestig ate
Ġdise ases
Ġhar vest
Ġcanc eled
ĠConf essions
Ġchem istry
ĠSar ah
ĠEs cape
Ġconcent rations
Ġmanufact urer
Ġmechan ism
Ġneut ron
Ġincorpor ates
ĠHistor ical
Ġartic les
Ġven om
Ġdoct or
ogen ic
Ġphilos opher
ĠBarb ara
ĠMov ing
ĠLeon ardo
Ġremn ant
Ġcontrib utions
Ġreserv es
Ġunsuccess fully
Ġdescend ants
Ġcorrespond ence
ĠWind s
Ġdownload able
Ġsed iment
ĠDur and
Ġske leton
Ġswe pt
Ġorn ith
Ġprol ong
Ġrum ors
Ġhem mem
ĠMother s
Ġtribut ary
ĠNichol son
Ġhelicop ters
Ġmamm als
Ġattrib utes
ĠParalymp ic
Ġlat est
ĠNash ville
Ġfatal ities
ĠBarn es
Ġfoss il
Ġenzym es
Ġsket ch
ĠCart y
ĠObserv atory
Ġbran ches
Ġsuppl ied
ĠZh ang
Ġliv estock
Ġreop ened
ĠLoy alsock
Ġprecip itation
Ġenlar ged
Ġscen ario
ĠHarm on
Ġalg orith
ĠFIT s
Ġvulner able
ĠVishn u
ĠHosp itall
ĠIntellig ence
ĠGwend olen
ĠBuen os
ĠArik amedu
Ġreperto ire
orrh iz
Ġchann els
ĠAnsel m
ĠDoof enshm
ĠSincl air
Ġnaut ical
b ard
e us
f am
l on
l ad
l ims
p ur
t ovac
u its
v ation
á º
Ġt et
Ġt ension
in h
on ium
Ġs or
Ġw orse
Ġc ub
Ġf ever
Ġf lee
an im
al o
Ġp over
Ġm ent
Ġd ried
Ġh ier
Ġh unt
le ted
ĠT ro
ĠT anya
ĠS ak
ĠS overeign
ĠC A
ĠC ur
ĠC ul
ĠC ert
el ia
el ih
Ġl as
Ġl ion
Ġe ase
ĠM eth
ĠThe ater
ĠB oulder
ĠI b
Ġg ay
et ary
ol es
im p
im mer
ot illa
ĠH ip
ĠH oys
ĠH add
Ġst rain
Ġst uff
Ġst range
Ġbe ak
ĠR ico
ĠR andy
ĠD raft
un ct
em ploy
ĠF ruit
ĠW a
ĠW onder
ĠG y
ĠL ars
ĠN am
Ġan alys
Ġan onymous
Ġcom ics
Ġv oyage
ort al
pp ets
Ġse ar
oc c
ĠK ra
ĠK um
ĠK arn
ĠU C
ĠSt rong
ast ing
Ġsp ite
rit t
ĠCh air
ĠV ett
Ġinc or
Ġar senal
ass ing
Ġres erved
Ġro uting
ĠTh ings
pl ain
Ġj ealous
Ġj unta
Ġout come
Ġout put
ced es
Ġwe b
Ġwe ighed
Ġwork er
ĠEn o
Ġrel ating
Ġme gal
Ġthan ks
Ġfl aw
olog ically
Ġrele vant
Ġreg ulation
Ġreg iments
Ġform ula
Ġass ign
Ġass essed
ĠSe b
Ġqu it
Ġinter ception
Ġinter rupted
Ġinter mediate
Ġam azing
ĠRe f
Ġep it
Ġtra its
ĠSc leroderm
row ing
pr ising
Ġadd s
Ġmon aster
Ġ15 3
Ġ15 7
elf th
Ġrep aired
ik er
ĠInd eed
Ġdirect ions
ĠCon sequently
enn a
Ġresp ected
Ã© ra
Ġcar rier
ĠCar n
ĠCar r
Ġprov inces
oman ry
ĠPl ant
ĠPl aying
Ġmat urity
Ġ13 9
Ġsupport s
Ġdam aging
ĠHer bert
ĠMe gan
Ġcare ers
Ġconf luence
Ġref lection
ĠMus lims
Ġposs essed
Ġthird s
ĠPh ys
amb ers
Ġrequ iring
ĠOr tona
ĠMan ager
Ġterm ed
lev ard
Ġmid field
Ġarch ipelago
Ġdel ays
Ġconv iction
Ġproject ed
Ġvict orious
ĠAss ist
isc her
Ġobs erve
Ġfact s
Ġread ily
ator ial
Ġchart ing
ĠBlack burn
ĠReg ard
ĠMich aels
ĠGl as
Ġadm ir
Ġbo ost
ĠRoy ston
ĠHam ar
Ġident ifies
Ġ185 3
Ġ185 8
Ġfar ms
Ġimpro v
Ġcreat ure
ĠDu arte
Ġvol can
Ġ188 5
ĠGame S
stit uted
ĠKh oo
Ġreb el
Ġcontract ed
Ġfort ified
Ġconduct ing
uck le
ĠMost ar
Ġmer ged
Ġthink s
ĠSqu ad
Ġdiss olution
ĠApp l
Ġmaint ains
Ġremov ing
Ġcru ise
Ġliter ally
ĠLa ud
ĠFilm s
Ġdro pping
Ġcompl ained
Ġ75 0
Ġdiscuss ing
Ġdiscuss ions
Ġens uing
ĠCatholic ism
Ġamb itious
Ġcann on
ĠItal ians
Ġthick ness
Ġdeg ener
Ġgraph s
Ġphot ography
ĠFin land
Ġlif estyle
Ġinvestig ated
ĠEr n
Ġvers us
Ġjump s
ĠBol ton
Ġmel od
ĠAv tovac
ocr atic
Ġsn ake
ĠReview ers
Ġcontact ed
Ġneut rino
Ġlegisl ature
ĠKn ights
Ġdeploy ment
Ġpan els
Ġcompr ises
ĠMic ro
ĠGi Ã£
ĠAddition al
ĠRos berg
Ġstrengthen ing
Ġstrik er
Ġmort ar
sw ick
Ġunus ually
ĠSus sex
Ġcool er
Ġsumm it
Ġaccident ally
ĠMel bourne
ĠVol unte
ĠFel d
ĠFel icia
Ġlaws uit
Ġpros per
Ġexerc ised
ĠWin ter
Ġbes ide
Ġcorp s
ĠDesc rib
Ġflo ating
Ġconqu ered
Ġcloud s
ĠBron cos
Ġproceed s
ĠLabor atory
Ġprol ific
Ġacclaim ed
ĠAP F
ĠCult ure
Ġcommit ment
Ġorb ital
Ġloy alty
Ġnav igation
ĠJenn ifer
Ġresign ation
Ġnickn amed
Ġfrig ate
Ġimprison ed
Ġerr ors
ĠExpress way
ĠParalymp ics
ĠSupp ort
Ġump ire
ĠVeer u
ĠIndones ian
ĠPhilipp ines
Ġneighborhood s
Ġdod o
Ġsevent een
Ġveter an
ĠNM E
Ġceleb ration
ĠJag ann
Ġincur sion
ĠRI AA
ĠAssy rian
Ġenvelop e
osy stem
ĠBrun swick
ĠPok iri
Ġabn ormal
Ġclust ers
Ġeld est
Ġdislik ed
ĠTuck er
Ġalco hol
ĠOjib we
Ġpover ty
elih ood
ĠVett el
1 0
2 2
L C
T A
c el
f ront
l ot
l io
s a
s ky
y ers
Ã ł
Ġ es
Ġt ran
he ll
he ars
Ġthe olog
Ġthe ories
Ġthe oret
on ald
Ġs inking
ed d
Ġo mn
Ġw ire
nd om
Ġf o
Ġf et
Ġf ib
ar c
Ġb ite
Ġb apt
Ġin acc
Ġp m
Ġp est
Ġp ock
Ġh ate
ĠA ch
ĠA qu
st ick
ĠC ot
ĠC ore
ĠC ost
Ġl ock
Ġl ung
Ġl ighter
Ġn a
ad ows
ac ular
ĠM ult
ĠM ann
ĠB un
ĠB oca
ĠI st
Ġg if
Ġg rap
id an
iv ial
im ol
im ination
ĠH av
ĠH ab
ĠH ous
ĠH appy
us c
Ġst iff
ĠP ont
her ic
ĠF ear
ĠF iction
ĠF itz
ĠF ischer
Ġal be
ch an
ĠW ey
ĠW any
ĠW emb
ra h
ra ham
ĠG et
ĠG ru
ĠL yc
ĠL akes
ĠL ands
ĠL ED
ĠN P
ĠN ature
Ġan k
ist ing
ĠO b
Ġpro ced
ill on
Ġr ice
Ġr ises
ard en
ab h
ĠK id
ĠK ras
ĠK usan
qu ir
Ġk ids
ĠSt opp
Ġsp erm
Ġsp elled
Ġy e
Ġle af
ine ae
ight ing
ĠCh amber
og a
og le
Ġun employ
ĠV oy
ĠV oice
out ed
Ġj oy
Ġen able
ang ered
ens ional
amp ed
Ġall ies
Ġbet a
ug ged
Ġtr aces
Ġrel ocated
ob on
Ġcol ored
Ġact ively
Ġform ations
Ġass ured
ĠSe as
Ġsub stances
Ġacc ord
Ġra ids
Ġra ndom
ann e
Ġsy nd
uc le
ars ha
Ġhigh lights
Ġbl ank
Ġexp ense
Ġmon k
Ġmet als
ĠInd ians
ĠBr igadier
Ġinst ances
Ġinf ilt
ĠAust in
Ġwar rant
Ġprov isions
Ġ13 4
ĠCol onna
ĠAd en
anc he
Ġvar iant
ĠPro du
app er
Ġprog n
Ġtop ological
Ġtrack ing
ĠHis pan
ĠOr s
Ġcapt ivity
Ġtrad emark
ĠPer th
Ġfore ver
Ġeast ward
augh ter
Ġcompet itor
Ġ26 0
Ġter ror
Ġpat ients
ring ton
Ġaff ection
Ġequ ally
sp ace
ĠAir lines
Ġbar racks
ĠGl en
Ġadm its
Ġfun k
ĠEx c
Ġwid th
ara oh
Ġsw ing
less ness
ĠOl iver
Ġste ambo
Ġtradition ally
Ġcell ular
ores c
ama ic
Ġsepar ation
Ġcoll ision
Ġquar ters
Ġir onc
ĠHen ri
ĠGal ile
ĠPe ggy
Ġill um
ĠOd ys
áĥ ĺ
Ġreason ing
ĠOliv ia
Ġneg lected
ĠQu ar
Ġhon est
Ġcivil ization
Ġclear ing
Ġthreat ening
Ġ183 8
Ġsyn onym
Ġphys ically
Ġgrad uating
Ġfr ames
Ġgra ves
Ġeduc ated
ĠAnt iqu
Ġ184 7
irt z
Ġparticip ating
ĠDr ive
Ġvisit or
ĠMer c
ĠHol land
Ġemb ry
ĠPat riarch
Ġscreen play
Ġcolon ists
Ġconclud es
Ġshoot s
ĠSur render
Ġ33 0
Ġnucle i
Ġacqu ire
Ġjud g
ĠTem pl
Ġsusp ic
Ġsusp ect
Ġpark s
Ġhar bor
ĠOff ensive
ĠPre par
Ġmel an
roll ing
Ġmanufact ured
mark et
ĠFour th
ĠKent ucky
Ġprepar ations
ĠWrit ten
Ġbelong s
Ġremix ed
ĠChap man
Ġunp op
Ġec osystem
ĠMort imer
ĠKar am
Ġod d
Ġtact ic
Ġtact ical
Ġmist ake
Ġrow s
ĠRevolution ary
Ġsail ing
Ġeas ier
Ġprotagon ists
Ġflu or
Ġflu id
ĠBor ough
Ġundert ook
Ġtrou bles
Ġsubstant ially
ĠBroad cast
Ġevac uation
Ġevac uate
Ġopt im
Ġpros ecution
Ġshel ter
ĠHere ford
ĠWars aw
Ġha irst
Ġdim ensional
ĠHung ary
Ġcoord inated
ĠHun ter
Ġwars hips
Ġdisappoint ed
Ġtele phone
ĠAlb ion
ĠMun ich
Ġjackrab bits
Ġty phoon
Ġremember ed
Ġimprison ment
ĠPle asure
Ġsymp athetic
Ġcarri ages
Ġelder ly
ĠFem ale
Ġwel come
ĠDie go
Ġswim ming
Ġtox ic
uzz i
ĠPier re
ĠYellow stone
Ġwors h
ĠDram a
ĠVis ual
Ġanticip ated
Ġinflict ed
Ġwre ck
Ġlumin osity
ĠHom ar
Ġmultipl ayer
Ġspawn ed
ĠLaure n
ĠSymph ony
ĠDestroy er
Ġstanz a
Ġamphib ious
ĠChop in
ĠBrother s
Ġchanc el
ĠFerr ari
Ġbron ze
Ġextraord inary
ĠNF L
ĠChau vel
Ġincons ist
ĠMuham mad
ĠLithuan ian
ĠSusqueh anna
acrit ic
ĠArbe ider
ĠMerri field
ĠDoofenshm irtz
Ġalbe it
ĠWany an
ĠWemb ley
ĠKusan agi
3 5
C l
E u
M C
c airn
d a
d ings
f low
g ow
g osaur
h in
i ens
i ants
i ya
m al
n as
o ffic
p ow
r us
r ink
t ures
z t
Ë Ĳ
Ð °
Ù Ħ
in qu
Ġs ank
Ġo pted
Ġw art
at isf
it ure
Ġc ad
Ġf urn
Ġf ission
ar as
Ġb ishops
an ing
as ury
as ma
Ġto ugh
ro ft
Ġm ast
Ġm ason
Ġm ating
Ġm asters
Ġh az
Ġh aun
Ġh urt
ĠT oy
Ġre work
ĠA val
ĠS ym
ĠS ylv
st ock
ĠC ou
ĠC hes
ĠC andid
ĠC AT
ĠC atherine
om on
Ġl akes
Ġe uk
Ġn ons
ac co
ac eratops
ĠM its
ĠM ales
ĠM ott
ĠM unic
ĠM CC
ĠB ore
ĠI ber
Ġg ate
Ġg ills
ol ulu
ĠH ew
ĠH arsha
us il
Ġst roke
ut or
ĠP ap
ĠP end
ĠP rice
ĠR oll
ĠR aton
ĠD J
ĠD oll
ĠD inosaur
ĠF ab
ĠF olk
Ġcon if
ra ine
ĠG or
ĠL ed
ĠL abyrinth
ĠN ation
ĠN umber
ĠJ ai
od ied
av elin
if fer
Ġv ow
pp ers
Ġse am
art a
ĠK ab
ĠK ap
Ġsh ock
ect ic
ĠâĢ ĺ
Ġhad rosaur
ĠSt ay
Ġsp ark
ge ant
ell ation
ĠCh i
ĠV H
ĠV ers
Ġcomp at
Ġcomp iled
Ġar cher
ry pton
ĠTh ames
Ġsc ales
are th
lud ing
Ġj am
ction ed
ress es
ace a
ph ae
Ġup gr
ens a
Ġte aches
att s
att an
ĠEn t
ĠEn v
Ġrel uct
ĠAr amaic
Ġcol oured
Ġend emic
Ġfilm m
Ġreg ained
ĠNew ark
ĠNew castle
Ġspec ially
Ġqu ake
ĠAmeric as
Ġbu ff
Ġbu ck
ll otal
uc aly
io let
aj al
Ġbl ame
ane ous
Ġem pty
ĠZ ap
ĠZ rÃŃ
Ġ15 8
Ġ15 9
ley s
Ġrev enge
Ġsign ature
ik a
Ġbro od
Ġins cribed
Ã© s
ĠPl ensa
Ġ13 3
ĠCol ony
Ġnorth western
Ġgu y
ĠQ i
Ġsouth western
ĠBe er
Ġprot otype
Ġmar ble
Ġposs essions
Ġdr unk
ĠFl ash
elt a
ĠPr adesh
Ġview ing
Ġiss uing
ĠAb raham
Ġbas ement
Ġcr imes
Ġlow ered
Ġsol ve
Ġstat ute
Ġter rible
ring e
Ġsurv ives
vers ely
ki i
Ġintrodu ce
Ġtour ism
Ġenc omp
Ġwid ow
Ġvill agers
Ġke en
Ġsw allow
less ly
Ġpred ator
Ġrock y
ett es
Ġfront ier
Ġassoci ations
Ġaver aging
ĠMed way
Ġir rig
Ġ188 3
Ġz ero
Ġfort ifications
Ġpract ical
uk u
Ġviol acea
Ġ187 6
Ġdiss ent
ĠBrown s
Ġ183 7
Ġtru ck
ĠNot ting
Ġcru zi
Ġcal m
ĠPo zz
Ġoccup ies
ĠMet acritic
Ġsil k
Ġsil ent
ĠBel ie
Ġdiscuss es
Ġens ued
Ġconcept ion
Ġlo ose
Ġadapt ations
Ġaccess ible
Ġjud ged
ĠSol id
agon al
Ġcollect ing
ĠCommand o
Ġpark ing
ĠLi SA
Ġcelebr ity
Ġintern et
Ġgrand son
ĠPit cairn
ãģ ®
Ġdrum mer
Ġpun ct
Ġchem otherapy
ĠWild life
Ġpeace ful
ĠEs sex
ĠTri als
ĠJos ce
Ġwild life
ĠCap com
Ġagg ress
ĠLar ge
lim ited
ĠFant uzzi
Ġprison er
Ġmuseum s
ĠChap ter
ĠGre ece
Ġdress ing
ĠRA R
Ġtur ret
Ġdefin itely
ĠLl an
ĠAp ost
Ġcompar able
ĠJeff rey
ĠAst ra
Ġmo ons
ĠSus an
Ġoverl ap
ĠCrown s
Ġpal ace
Ġdecre ased
ĠConn ie
ĠMarc us
ĠLow land
Ġbowl ers
Ġrub ble
Ġdisturb ed
ĠSav annah
ĠHug uen
ĠCam er
Ġpredecess ors
Ġkings hip
Ġvolunte er
Ġconsequ ences
ĠCook sey
Ġconqu est
Ġrepr inted
Ġsongwrit ing
hol m
Ġnav ig
ĠBab yl
Ġgard ens
Ġori ented
ĠYugosl av
Ġparas ites
Ġtack le
Ġeat en
Ġcongreg ation
Ġenh ance
ĠPow ers
Ġdeleg ates
Ġcomed ian
Ġpoison ing
Ġinnov ative
Ġanaly zed
Ġnurs ery
Ġexpect ations
Ġgh ost
ĠDah l
ĠNon etheless
ĠPubl ishing
Ġclim ax
otyp es
ĠVi aduct
ĠSomet imes
Ġrid icul
Ġreass igned
Ġkid n
Ġpec kii
ĠLiter ary
Ġexplicit ly
Ġaerodrom es
ĠCry stal
terf ly
ĠFried rich
Ġquad ru
Sh ara
ĠVa ishn
Ġadequ ate
icken ham
Ġentert aining
ĠAdri atic
ĠPitts burgh
Ġreh abil
ĠSag inaw
ĠMom ent
Ġcontempor aries
Ġgram mar
ĠFlet cher
ĠConstantin ople
Ġdiscontin ued
ĠGand hi
ĠVisc ount
Ġperc ussion
ĠChair man
Ġincor rect
ĠGlas gow
ĠGameS p
ĠMicro soft
ĠFeld man
ĠJagann adh
ĠStopp ani
obon elli
ĠMits uda
ĠZrÃŃ nyi
ĠPozz obonelli
F ar
H A
d am
d iction
h urst
i at
i ating
i ability
m i
m aster
o i
o ina
t he
v ig
Ġ *
Ġ ~
Ġ ç
Ġt iny
Ġt ube
Ġs id
Ġs alt
Ġs overeign
at ab
or ian
Ġc ow
Ġc ov
Ġc ater
Ġb ark
Ġb unk
Ġb inary
Ġb acter
Ġb iblical
Ġp ad
Ġp ier
as p
Ġto ol
ro ve
ic ular
Ġm a
Ġm ail
Ġd ent
Ġd ish
Ġd iversity
Ġd rought
Ġh ack
le ki
ou ver
ĠT ests
ĠA OC
ĠS iber
st all
st age
ĠC ott
ĠC hester
ĠC hess
Ġl un
Ġl od
Ġn ests
ac a
ĠM ess
ĠM Äģ
ĠM obile
ĠB erm
ĠB ened
ĠI ran
Ġg amb
Ġg aming
ol or
ig o
ot ion
ĠH us
ĠH ast
ĠH Æ°Æ¡ng
Ġst ir
Ġst air
ver y
Ġbe aches
ĠR as
ĠR aw
ĠR anger
ĠR overs
ĠF ac
ĠF ine
ĠF oster
ul um
ĠW or
ĠW CW
ĠG P
ĠG em
ĠG rey
ĠL al
ĠL ocated
ĠN ek
ĠN umb
ĠN omura
um an
ĠJ T
ĠJ ill
ag g
ag ram
Ġhe ll
ĠE ly
op ard
Ġpro ud
Ġpro se
Ġv ass
Ġsu ited
Ġse ize
Ġch lor
ant ine
Ġpl ates
Ġpl ateau
Ġsh ipped
Ġsh oes
ĠU ÃŃ
ĠU leki
ov iÄĩ
ĠSt okes
Ġle v
Ġle aked
ost ic
ish am
ĠCh anc
og ram
Ġun h
Ġun ity
Ġun ve
Ġun aware
Ġun anim
ĠV ij
Ġinc l
Ġinc idents
Ġus er
ĠTh i
ĠTh r
Ġper pet
Ġapp rent
ach arya
Ġj oke
Ġman ages
Ġman oe
act ory
Ġag ar
Ġafter ward
ib e
les ey
ĠOn o
Ġshe et
amp a
Ġte lev
rib e
Ġfe es
Ġrem aster
Ġkn ock
Ġcons ensus
Ġdec ent
ters hire
Ġunder grad
ĠCom plete
Ġass ume
Ġbu oy
ann er
hen t
ĠSh an
Ġsy ll
Ġsupp orter
Ġnumber ing
ĠSc iences
Ġexp ecting
Ġem pl
Ġinv is
ah l
ik i
ĠInd ivid
ĠWh y
ĠWh ole
ĠCon vention
Ġwar rior
Ġ13 8
Ġph ases
ole t
Ġgr id
Ġed itors
ĠAd rian
ĠAll music
Ġvar ieties
ĠMe g
ĠFran Ã§
Ġsl ope
Ġsl avery
Ġlist ening
Ġtop ic
Ġtop ics
ĠBy ron
let t
Ġmed ian
Ġcommand ing
Ġeng aging
Ġauth ored
Ġant ib
Ġdem o
ograph ies
Ġcame o
Ġexper iments
Ġimport ed
ĠRec reation
be e
Ġexc ited
Ġexc luded
Ġ21 7
Ġcompet itors
Ġ24 3
Ġcult ures
ĠSte ven
Ġpat ch
ĠEd die
Ġcountry side
Ġmanag ing
Ġsit com
Ġcou pled
Ġproc laimed
Ġbar ons
Ġbar ometric
Ġactiv ated
ĠAng lesey
ĠTown sville
Ġfac ulty
ĠBra ves
Ġfav ored
Ġcirc ulated
Ġident ification
Ġ185 2
ĠMad h
Ġindivid ually
Ġinform al
Ġ186 6
Ġcop per
Ġhon ors
Ġesc apes
Ġ187 2
Ġinvest ors
Ġpriv ile
Ġpriv ately
Ġtru cks
Ġap olog
Ġdisp utes
ĠDr um
Ġdepict ions
Ġche f
ĠCamp us
Ġsat ire
Ġtemper ate
Ġdoll s
Ġcontem pl
Ġens ured
Ġinn ocent
Ġcontroll ing
ĠServ ices
Ġattract ion
ĠTw ickenham
ĠRob in
Ġdark ness
Ġcollect ive
Ġcollect ively
Ġdom ain
Ġfinanc ially
Ġtax i
Ġsymb olic
Ġadvant ages
Ġang ered
Ġcompos ers
Ġbene ath
Ġpu ppets
ĠDist ribution
ingu ished
Ġwebs ites
ĠEngine ering
ĠEs s
Ġple ased
ĠTri ple
Ġhy per
Ġhy phae
Ġmanufact ure
Ġmanufact urers
Ġnest ing
Ġnorthwest ward
Ġillust rations
ĠSen ior
Ġ55 0
ĠHib iscus
Ġspect rum
ĠId ol
Ġod e
ĠEven ing
ĠLu is
Ġspeak ers
Ġrival ry
aph ore
Ġoverl ooking
Ġencoura ge
Ġtheat ers
Ġspons orship
Ġstret ch
ĠDream s
Ġcontrib ute
Ġdescend ed
Ġload ed
Ġload ing
ĠYe omanry
Ġsoft ware
Ġ87 8
Ġgal ax
ĠDom oina
Ġshel ters
Ġcontest ed
ĠChen n
ĠElect ric
ĠSpring field
ropol is
ĠRoberts on
Ġcorp se
ĠPerson nel
ĠRhodes ia
ĠPalmy ra
Ġhang ing
ĠHind i
ĠHind enburg
Ġbor ough
Ġastronom ical
Ġsurpr ising
ĠSid on
ĠCec ily
Ġconsc iousness
ĠAz ores
Ġadvis ories
ĠMcL u
Ġfrust rated
ĠConfeder ate
Ġcyt oplasm
Ġdiscip line
ĠPoly t
Ġalt ogether
Ġpap al
Ġlamb e
Ġdisagre ed
Ġabol ished
Ġinfer ior
Ġtoler ance
Ġaccomplish ments
Ġceremon ial
Ġpseud onym
ĠBulgar ia
Ġmetall ic
ĠEg uchi
ĠBright on
ĠHarv ey
Ġbrut al
Ġdenomin ation
Ġreag ents
Ġcomprom ise
ĠCommer cial
ĠWed nes
ĠLeban on
Ġgenu ine
Ġfier ce
Ġboil ers
ĠMalays ia
Ġfart her
Ġjur is
Ġexem pl
Ġcorrid or
Ġmurd ered
Ġhurd les
ĠTimb aland
ĠMetall ica
ĠPion eer
ĠEps om
usil iers
ĠMÄģ ori
Ġmanoe uv
C onn
D own
G A
T unes
W A
W C
b ec
c ach
c ade
c hel
d ish
e ing
e ux
h aw
m us
n is
o os
p ect
v et
v iously
w ild
w oman
x d
z og
z ens
Å ¾
á ¸
Ġ à¤
ģ Ħ
Ġt ides
Ġt ensions
he ld
in ely
in stein
Ġthe or
on z
re ement
Ġs hed
Ġo st
Ġw are
it ects
Ġc ure
Ġc ement
en ary
Ġf ont
Ġf ract
Ġf ores
Ġf ighters
es y
Ġb ot
Ġb ub
Ġin ex
Ġin duction
Ġp agan
Ġp aved
Ġp apers
Ġto uc
Ġto ss
Ġm ould
Ġm ound
Ġm aj
Ġd ors
Ġh urricanes
ĠT ud
Ġre vel
Ġre inc
ĠS F
ĠS ad
ĠS amp
ĠS ep
ĠS aw
st rong
ĠC ove
ĠC oss
ĠC eratops
ĠC AA
ĠC inem
ĠC avalry
Ġl oot
am as
am ous
am oto
Ġe ager
ĠM ust
ĠM ason
ĠB uch
ĠB elf
Ġg olf
id y
id ency
iv or
ig ations
ĠH il
ĠH az
us ions
Ġst ip
Ġst ained
Ġst ored
ĠP S
ĠP ad
ĠP ut
ĠR P
ĠR ou
ĠR ear
ĠR ough
ĠR esp
ĠR AF
ĠF ly
ĠF aith
ĠF usiliers
Ġwh it
Ġwh ist
ul sion
ul ators
ĠW id
Ġcon vert
ĠL ions
ĠL aur
ĠN et
ĠN ig
ĠN orse
ĠN ancy
Ġat oms
ĠJ as
ain ted
av i
ri et
Ġv in
Ġv intage
ĠIn ari
Ġr ings
ew orth
art en
ak ur
ab ling
pt ic
ĠK em
ĠK aly
ĠK ashi
Ġpl ac
Ġpl acement
Ġpl asma
Ġâ ģĦ
ack Down
ĠU prising
ĠSt ore
ast ical
Ġsp ans
Ġsp ont
ment ed
Ġnot ion
Ġnot ices
ell o
our t
ĠCh oice
Ġun ited
ĠV ick
Ġinc umb
so lete
Ġint rig
Ġar ist
Ġwhe at
own ed
ass es
Ġres ort
Ġad ul
ĠTh akur
Ġper f
ĠAl am
ĠAl ways
Ġsc ream
Ġsc rapped
iz ards
Ġj avelin
Ġman sion
Ġpart ition
Ġag ing
ĠY u
te f
te br
Ġpre hist
les i
Ġcons ec
ĠAs ide
Ġdec isive
Ġtr act
ters on
Ġseason al
Ġunder lying
ĠAr med
ĠAr ms
Ġfl our
Ġfl att
ve er
Ġreg ulations
Ġsub mer
ific ate
Ġpubl ish
Ġtra p
Ġbl ues
Ġtrans m
Ġperform s
Ġinv ented
ern e
ern er
Ġmon itors
Ġmet er
Ġest ates
Ġest uary
Ġcre am
ah u
Ġob solete
Ġmill imeter
Ġcontin ent
au ge
els k
ĠBr idges
ĠIs a
ĠIs la
Ġdisc arded
Ġmil itia
ĠBl ake
Ġany where
Ġair ing
Ġair lines
ĠPl um
ĠPl ains
ĠCol in
ĠPro ctor
Ġ14 5
eb e
ĠGu ang
Ġcare fully
Ġpublic ity
ĠNov ak
Ġprot ective
Ġsl ated
Ġtri ps
Ġtri umph
Ġpar rot
Ġbre ath
Ġhum orous
Ġmed ic
Ġmed ley
amb u
ĠFl ood
Ġrequ ests
ĠPr uss
ĠOr igins
Ġcapt ains
Ġdest ruct
Ġreal ize
Ġreal izes
ĠPort s
Ġpolit ician
Ġel igible
ĠAm un
Ġcr imin
Ġcur ren
Ġfre ely
Ġmembers hip
Ġpost p
ĠEd mund
ne um
Ã¡ l
Ġfact ion
Ġcou ples
Ġcou rage
ĠReg ion
Ġintrodu cing
ĠAir borne
Ġtechn ologies
Ġste pped
Ġfac ade
Ġtre ason
ett a
Ġsuper vis
Ġfav oured
arch y
Ġcirc les
mar cach
ycl one
Ġ185 5
ask et
ĠCo al
Ġdev ices
Ġ188 6
ĠGame play
ĠPe ace
ĠCr ist
Ġreve aling
Ġemploy ee
Ġfort ress
Ġfort une
Ġmer ge
ĠSm ackDown
Ġcommercial s
ĠAg ricult
ĠAg reement
Ġintens ify
Ġheav en
ĠVar ious
Ġabs ent
ĠAnt illes
Ġdeterm ining
Ġ184 2
ĠZealand ers
ĠSing ing
Ġkey board
ĠMer i
ĠMer cedes
Ġemb arr
Ġcompl aints
ĠWood s
ĠWood ward
ĠWood full
Ġflow er
Ġri ots
ĠArch itect
ortun ately
ĠDel hi
Ġlay out
ĠSol ar
Ġdark er
Ġphot o
uff s
ĠLong acre
ĠLo ft
Ġnecess arily
Ġinvestig ating
oura ge
Ġ182 0
Ġprec ise
ĠBre ed
Ġ37 0
Ġbrown ish
Ġnation ally
Ġrear guard
Ġstrugg ling
Ġfarm land
ĠWay ne
ĠMass a
Ġrequire ment
Ġlegisl ative
Ġdress es
Ġmolec ule
hu veer
Ġresemb les
ĠLeg isl
ĠDis app
ĠDis ney
Ġclean ing
ĠMem ory
ĠWork ing
Ġvirt ue
ĠAdv enture
ĠBru ges
Ġmyth s
opp ing
ĠRow son
Ġsquad rons
chest ra
Ġdog s
Ġroof s
ĠHard y
ĠPrinc eton
Ġmoder ately
Ġexplos ion
Ġcrown ed
ĠWy att
Ġru ined
Ġelectric ity
Ġvary ing
Ġpublisher s
ĠAR IA
ĠRif le
ĠWin ston
ĠWW E
Ġsulf ide
Ġrecre ation
Ġorchest ral
ĠStock holm
ĠGuy brush
Ġpric es
Ġcoord ination
ĠXe F
ĠTam il
roscop ic
Ġow ing
ĠSem aphore
Ġlimit ations
Ġescort ed
ĠRecord ed
Ġori ent
Ġtack les
ĠCob ain
Ġhorn s
Ġid ol
ĠNob el
ĠLud low
Ġdiscip les
ĠUlt imately
Ġceratops ians
Ġkit chen
Ġfoss ils
Ġdiagn osed
Ġstrict ly
Ġprosp ect
Ġsurf aces
ĠSomet hing
unc iation
ĠProte ins
Ġconfront ation
ĠHur on
Ġinher ited
Ġadvoc ate
ĠAh k
Ġaccum ulated
Ġpromin ently
ĠCrusad er
ĠRag huveer
ĠFul be
ĠOst end
Ġpopul ace
Ġautobi ography
Ġneighbour ing
Ġtel escope
Ġaf raid
ĠLt d
ĠSout heast
Ġsubord inate
Ġdesper ate
Ġwarn ings
Ġaccus ations
Ġmetaph or
Ġextr ater
ĠHang zhou
Ġsymmet rical
Ġabsolut ely
ĠEch marcach
Ġcrusad ers
Ġtong ue
Ġupr ising
Ġhorizont al
Ġfing ers
Ġdanc ers
ĠWey den
ĠVoy ager
Ġunpop ular
Ġeuk ary
ĠEnv ironment
ĠAstra eus
ĠBened ict
ĠJT WC
ĠMcLu han
ĠWednes day
D P
E T
M I
M usic
O ct
a ford
b el
c at
c ore
c are
f eld
g ate
h r
i ob
l ist
l ance
p her
u pp
u fficient
v ara
w ine
x i
y on
z her
z ora
Ã ¦
Ġ è
Ġ ul
Ġt ap
Ġt ide
Ġt ended
Ġt ech
Ġt rench
he nd
Ġa ft
Ġa isle
Ġthe ology
Ġs el
Ġs izes
Ġo ak
Ġo val
Ġw is
Ġw ield
Ġw restling
Ġc yc
Ġf ond
Ġf oul
Ġf lex
ar on
Ġb owler
Ġp or
ro ck
ic z
Ġm im
Ġd il
Ġd well
Ġh ung
ĠT ed
ĠT ask
Ġre pt
ĠA mp
ĠS in
ĠS ide
ĠS leep
il er
ĠC rom
ĠC ort
ĠC ave
ĠC ox
ĠC ertain
ĠC herry
om orph
Ġl aying
Ġl oses
Ġl amps
Ġe ucaly
Ġn erv
Ġn iece
ĠM is
ĠM ing
ur bs
ĠB le
ĠB ri
ĠB end
ĠB order
ĠB enson
ĠI U
ĠI ce
ol o
ol ese
id as
im m
ĠH IV
Ġst unt
Ġst umps
ut o
ĠP itt
ĠP eng
ĠP SP
ĠR E
ĠR ing
ĠD uc
ĠD iana
ĠD angerous
ĠF C
ĠF res
ĠF igg
Ġal ike
Ġal arm
ĠW is
ĠW oman
os ion
os omal
ĠL an
ĠL iang
ĠN ina
est hetic
ĠJ a
ĠJ ak
ag ne
ĠE ld
ĠO pp
op o
Ġv ener
ill ance
Ġde eper
Ġr am
Ġse aled
ab ilities
Ġex h
Ġex agger
ess es
ĠK az
ĠK ling
ĠK akapo
Ġsh ops
Ġsh irts
Ġk un
ĠSt ead
Ġsp aced
Ġsp okes
Ġle ase
ine as
ĠCh am
ĠCh ase
ia h
og na
Ġun even
Ġinc omp
Ġbut ton
Ġint ent
Ġar tef
Ġ20 2
ff in
ok an
Ġro ok
mer ie
ric ally
iz z
Ġover night
Ġim per
ph al
Ġup stream
man ship
ren ched
Ġwould n
ces tershire
ĠAn na
gan s
ep ing
Ġcons umed
oth ing
Ġrel ay
Ġrel iance
ind a
Ġunder neath
ĠCom et
Ġfl anks
ve illance
ĠSe v
Ġret iring
Ġacc ent
Ġra g
ins ki
Ġam end
Ġind ie
Ġind oor
hen g
ĠRe ed
ĠRe port
ĠRe formed
Ġsy ÄģdvÄģda
ars on
Ġbl own
Ġtrans formation
Ġpop e
ert iary
inn ed
Ġmill imet
ik es
Ġart if
Ġdown graded
Ġinst ruction
Ġdist inction
Ġins ert
Ġins ufficient
gest ion
Ġoper ator
Ġprov oked
ĠCl ar
ĠCl aire
Ġed ible
Ġgu ilt
ĠAll Äģh
ĠHer mann
ĠHer bie
Ġattack ers
ĠQ in
ĠMe gal
ĠFran co
Ġ14 9
eb ack
Ġpartic les
Ġdet ached
Ġdet ective
Ġmar row
ĠPar ade
Ġref using
ĠGe ography
Ġexpl orer
Ġperson a
Ġkill er
Ġsent enced
Ġeng ra
sh op
ĠAb ove
ĠBatt alions
Ġreal ism
ĠPort land
ĠPort able
ĠPort rait
Ġtw elfth
Ġdel icate
ĠChurch ill
Ġappe aled
Ġsol utions
Ġ28 0
Ġpost hum
ĠSte el
ĠSte am
ĠEd in
Ġaff ects
ĠEl iot
Ġpress ing
Ġcomb ine
Ġsound ing
Ġ27 5
Ġlight ing
ĠEx am
Ġprim itive
Ġdecl ining
ĠAng l
ĠBra h
ĠMor ay
Ġknow ing
Ġmass es
Ġbroad ly
Ġarm our
iction ary
ĠRed Oct
ĠRock star
Ġcost ume
Ġachie ving
Ġmer ger
Ġlength y
lus ive
ĠTor ch
Ġ187 9
Ġtrib e
ĠOs wald
Ġ183 3
Ġsyn th
Ġproper ly
ĠCong olese
Ġheav iest
Ġrail s
achel or
gu y
Ġdeterm ination
Ġminor ities
ĠTom ita
ĠSch ol
Ġtouch ing
Ġimm un
Ġdead line
ĠUnder ground
Ġder ives
ĠPat terson
ĠArab ia
itte es
Ġlink ing
Ġens uring
Ġamb ig
Ġlo osely
Ġ32 0
rol oph
ĠTra ining
Ġdig ging
Ġmarket ed
Ġcomplex es
ĠEr zher
Ġcelebr ations
Ġsecret ly
ĠMidd les
Ġhol otype
ĠKa iser
Ġdispl acement
Ġwear s
ĠTurn pike
ocr acy
ĠMat ch
Ġavoid ing
ograp hed
Ġprogress es
Ġprogress ive
Ġhy br
Ġhorse power
Ġremark s
Ġmountain ous
Ġnarrow ly
ĠSen ators
ĠArm strong
Ġfrag ilis
ĠFA U
ĠUs ing
Ġspect ators
Ġtim ing
ĠCarl isle
Ġod or
ato es
Ġmob il
Ġmob ility
Ġbit ter
Ġactress es
Ġspeak s
Ġoverl ook
ĠTrack s
bo at
Ġrac ial
Ġfirm ly
ĠAdmir alty
Ġi Tunes
Ġdecre asing
ĠPhill ips
Ġsupposed ly
Ġhat ch
Ġ176 9
Ġcab in
Ġdub ious
Ġlegend ary
ĠSurv ivor
ĠBul let
Ġinstruct ions
ĠFair ies
ĠLev ine
ĠJun ior
Ġstrateg ies
Ġdemol ition
Ġpsych ological
Ġflo ors
ĠStock well
Ġoutf it
Ġcul min
ĠXe O
Ġet c
Ġstead y
Ġgross ing
Ġcart oon
ĠPict ure
Ġrum ours
Ġfold ed
Ġliber al
Ġorb its
ĠComb ined
Ġsatisf ied
Ġexcess ive
ĠPlat te
Ã£ o
ĠAmb assador
ĠDor othy
ĠHy der
Ġquant ities
ĠTy phoon
Ġceremon ies
ĠBuck ingham
endar merie
Ġassess ment
Ġpromin ence
Ġrefere e
ĠCrusad ers
Ġlad ies
ĠRaid en
Ġzomb ies
Ġmotif s
ĠSle aford
Ġcontinu ously
ĠColomb ia
ĠHub bard
Ġpresbyter ian
Ġmonit oring
ĠÃĨ l
Ġhypothes is
Ġcompan ion
ĠRepresent atives
Ġthro at
ĠPoet ry
ĠDian e
ĠKub ica
ĠSpir it
Ġfab ric
ĠWol ver
Ġtrunk line
Ġrelax ed
Ġsubd iv
ĠAren a
Ġexplan ation
Ġacquis ition
ĠMeth od
ĠHoys ala
ĠHadd ock
ĠSeb astian
ĠAssist ant
ĠOrs ogna
ĠOdys sey
ĠQuar ter
ĠNotting ham
ĠBerm uda
Ġtelev ised
Ġdors al
ĠTud or
ĠBelf ast
Ġsubmer ged
ĠRedOct ane
ĠErzher zog
1 8
2 8
4 8
C N
c ot
c hester
f a
h orn
h agen
h attan
i oc
i ency
m ith
n umbered
o T
o ors
v i
v o
v ador
w ing
y g
Î ±
Ð ¾
Ġt ier
Ġa ug
er k
er os
on ies
Ġs ided
Ġw ake
at ro
or ers
it ational
Ġc ant
Ġc ree
Ġf itness
ar ious
ar med
Ġb ic
Ġb ern
an ian
Ġp ile
Ġp odium
Ġto b
ic ist
ic ating
Ġd ome
Ġh ast
Ġh ub
Ġh aul
ion ed
ou k
ĠT ry
ĠT OT
Ġre hears
ĠA ur
ĠA uck
ĠS elf
ĠS ector
il ian
il iation
ĠC z
Ġl ament
am ely
ad vant
ĠM ith
ĠM ood
ĠM ons
ĠM ode
ĠM umb
ĠThe mes
ec es
ĠB ud
ĠB ear
ĠB ran
ĠB uff
ĠI X
ĠI van
et own
ol esc
iv ic
Ġfor aging
ir med
ot he
ĠH D
ĠH ed
ĠH ood
ĠH ollow
ĠH BO
Ġst rand
ĠP or
ĠP av
ĠP ick
ĠP anther
ĠP agoda
ĠR F
ĠR ight
ĠR ather
ĠD arden
ĠF rid
ĠF rost
Ġwh is
Ġal ly
ĠW ally
ĠW inn
ĠG B
ĠG av
ĠG iven
ĠG aga
os c
ĠL ak
ĠL ik
ĠL uther
ĠN ame
ĠN guy
Ġat omic
ct ive
rom e
and is
ĠJ ama
Ġhe ter
ist o
ist ically
av or
ri ers
ri ages
ri fic
ĠE ra
ĠE ff
ĠE mer
ĠE SP
ĠE rik
ĠO il
Ġcom eback
op ed
op ter
Ġpro ph
Ġpro ven
Ġv et
Ġde an
Ġsu ite
ĠIn sp
Ġr is
ab ol
ud ed
oc rat
gh an
pt ical
ĠK inn
Ġpl aster
Ġpl astic
Ġare na
Ġâ Ļ
Ġsh ar
ĠSt anding
Ġsp ill
Ġnot iced
ip as
ip her
og enesis
ĠV ert
ĠV inc
Ġcomp act
Ġcomp ares
Ġcont ents
Ġint imate
Ġher ds
ran k
ran ger
Ġrec ipes
ĠAl onso
Ġdis g
Ġdis rupted
Ġman ual
Ġover th
ound ed
ress ing
Ġup s
Ġev ol
we go
les und
ĠUn f
ĠAn at
ĠAn field
Ġwhen ever
Ġkn ight
Ġkn uckle
Ġcons ort
Ġnew er
Ġtr ilogy
Ġtr ivial
Ġunder water
ĠAr d
ob s
Ġfl ame
Ġver dict
Ġend angered
Ġpr ince
ĠSe x
Ġsub urbs
Ġret aining
ĠNew man
ĠLe ading
Ġsome body
ĠRe ign
ĠRe ading
ĠRe formation
Ġday light
ros pective
ĠSh ot
ĠSh apur
Ġfound ers
Ġ12 8
Ġbl og
Ġloc als
Ġpres ervation
ĠSc reen
Ġperform er
Ġinv ention
ĠBr uss
ĠIs hm
Ġcrit ically
Ġcar avan
ĠWar ner
ĠWar wick
Ġdesign ing
ash t
ash ing
Ġmat rix
oss y
Ġbr ass
Ġed iting
ĠAll ies
ĠFor g
Ġ14 8
Ġprom ising
Ġstr ings
Ġlast s
Ġconf ig
Ġshort s
ĠMc A
Ġreview ing
Ġgovernment al
Ġhand ful
ĠFl ag
ĠOr thodox
ĠMan ual
ĠMan hattan
ĠComp et
atter ing
Ġeffect iveness
Ġcour ty
Ġrefer enced
Ġpolit ically
Ġprop oses
Ġevery body
ĠAm anda
Ġcr ashed
Ġchurch yard
Ġappe als
Ġsol ved
Ġfre ed
Ġdefe ats
Ġtotal ed
Ġpost season
ĠSu z
ĠCent ury
Ġnever theless
Ġfem in
Ġord in
ĠEv il
Ġsoc ieties
aun ton
Ġer u
Ġer osion
Ġcat alog
aul ipas
Ġcast les
Ġwat ches
ĠGl am
ĠPal m
ĠRich ie
ĠRoad s
Ġput s
ĠHam let
Ġpromot ing
ĠSw amp
ĠMon te
Ġprocess es
Ġfront al
omp any
ĠMor avia
ĠGod s
ĠBer lio
Ġspecial ist
Ġbi as
Ġdev ised
Ġ188 4
oph one
Ġren owned
ĠEm ily
ĠMac Ar
Ġreason able
ĠBay eux
Ġaccount ed
ĠBut etown
Ġavail ability
ĠHel m
ĠFe et
ĠGr isham
Ġbusiness man
Ġpen is
Ġcontr ary
Ġ183 1
Ġ183 4
Ġsyn t
Ġslow ed
Ġindepend ently
Ġeconom ics
ĠSing le
Ġaut hent
Ġhapp ens
ĠJer emi
Ġcompl aint
Ġvot ing
Ġscreen ing
ĠUp d
ĠOtt om
Ġobserv es
Ġobserv ing
Ġbroadcast s
Ġmeant ime
ĠMey ers
Ġnatural ist
Ġenv ision
Ġemer ging
Ġmor ale
ĠSal vador
ĠTem p
Ġnecess ity
ĠGar th
Ġpurs u
Ġpurs ued
ĠAI DS
Ġ182 1
Ġang ular
Ġenjoy able
Ġ48 0
Ġwalk ed
ĠPre c
Ġstrugg les
Ġathlet ic
Ġthr iller
Ġconcent rate
Ġ180 1
Ġmission ary
ĠProt ection
Ġhun ters
ĠLar wood
Ġdoub led
Ġge ography
Ġwor ried
Ġfix tures
ĠNorm andy
Ġelement ary
Ġatmosp heric
ighth ouse
Ġod es
ĠNever soft
ĠGard ens
onom ic
ĠDun n
ĠGh at
Ġham mer
ĠWat ch
Ġsend s
och ond
ĠFre eway
Ġexpress ing
kins on
ĠBarb ours
Ġnegot iated
Ġcoal ition
Ġtheat res
Ġsumm oned
ĠRow land
aver n
Ġcontrib uting
ĠInc re
Ġrob ust
Ġrebu ilding
Ġaddress es
ĠDemocr ats
real m
Ġcry stall
Ġfer al
Ġinstruct ed
Ġtal ented
Ġconsequ ently
agu ar
ĠCE O
Ġancest ry
Ġancest ors
Ġpreced ed
Ġtick et
ĠTam aulipas
Ġpatron age
Ġaccommod ation
Ġalleg ations
Ġmusc imol
ĠPict ures
ĠFernand o
Ġutil ized
ĠSn ake
Ġtrail er
Ġpersu ade
ĠGlad ys
Ġenh anced
ĠPlat oon
Ġfrust ration
Ġcateg or
Ġax is
ĠDiam andis
ĠDah lan
Ġcoinc ide
Ġrefuge es
ĠMcD ou
Ġsentiment al
Ġump ires
Ġapprec iated
ĠProte in
Ġsect ors
Ġjew el
Ġvir us
ĠFeel ings
Ġclin ical
ĠArn old
ĠEconom y
Ġshr ines
Ġresol ve
Ġshru b
Ġconstitu ency
Ġecho ed
ĠVerm eer
Ġmathemat ical
Ġecc lesi
Ġportr aying
Ġstap le
ĠSug ar
ĠBes ides
ĠBelt line
ĠGamb ia
Ġsacrif ice
Ġlicens ed
ĠUygh urs
Ġinver tebr
ĠTun nel
Ġinterc ourse
Ġfest ivals
ĠÃħ lesund
ĠAff airs
Ġconclus ions
ĠPeron ist
ĠPopM atters
ĠSche er
Ġculm inated
ĠÅĮ zora
bu ilding
Ġdread n
ĠPomp ey
ĠScandin avian
Ġpreval ent
ĠHarmon ix
orrhiz al
ĠKum ar
ĠLyc oming
offic ial
Ġwart ime
ĠZap ata
ĠHuguen ots
atab ase
ĠSiber ia
ĠCott am
Ġgamb ling
ĠNumb ers
Ġundergrad uate
Ġinvis ible
ĠPolyt ron
Ġreinc arnation
Ġincumb ent
ĠIsla is
Ġnerv ous
ĠEdin burgh
ĠTorch wood
ĠÃĨl fric
ĠMumb ai
ĠESP N
Ġknuckle ball
ĠBruss els
ĠIshm ael
ĠBerlio z
ĠMacAr thur
4 2
N S
N e
O L
O R
S E
a ak
a que
b ot
d i
d rop
e apolis
f ast
g ence
i ott
j iang
m are
n ut
n ity
o a
o an
p at
p art
s k
Ã ¥
Å Ł
Ï Ĥ
Ñ ģ
Ġ q
Ġ ig
Ġ à¸
Ġt ying
Ġt ears
Ġs eller
Ġs lee
Ġs aints
Ġw ines
Ġw ages
at ories
Ġc oun
en stein
Ġf ra
Ġf als
Ġf ighter
ar at
ar ity
Ġb ent
Ġp ac
Ġp ist
Ġp ew
ic les
Ġm ant
Ġd un
Ġd iving
Ġd inner
Ġh ollow
ou che
ĠT apes
ĠT aunton
Ġre app
ĠA my
ĠA oT
ĠS ut
ĠS oul
ĠS oir
ĠS iege
ent on
ĠC C
ĠC rane
ĠC yclone
om ed
Ġl on
Ġl av
Ġl ord
Ġn Ã©e
Ġn amely
ac ters
ĠM ember
ĠM oth
ĠM ansfield
ĠM insky
ur p
ur ally
ĠThe odore
ec ca
ec ompany
ĠB rom
ĠB ess
ĠB ile
ĠB aja
ĠB asket
ĠI B
Ġg le
Ġg est
Ġg ren
Ġg ale
Ġg lee
Ġg auge
Ġg endarmerie
et e
ir ie
ig m
ot ation
ĠH ors
ĠH yp
ĠH undred
ĠH ears
Ġst ance
Ġst ays
Ġst olen
ay ette
ĠP t
ĠP all
ĠP red
ĠP ros
ĠR aph
ĠR CA
ĠD in
ĠD il
ĠD ow
ĠD are
ĠD up
ĠD enn
ĠD elta
em ics
ĠF ol
ĠF un
ĠF lem
ĠW ever
ĠW ins
ĠW ool
ĠW ii
ra ged
ĠG M
ĠG ut
ĠG ay
ĠG ros
ĠG of
ĠG onz
ĠL N
ĠL ion
ĠN f
ĠN an
ĠN ol
ĠN ir
ĠN ail
ĠN ambu
ĠN othing
um m
ag us
Ġhe s
Ġhe ated
od ing
ĠE uras
ĠO ro
ĠO ric
ĠO wego
res c
Ġch ore
Ġch ains
ant ed
ĠK ess
ĠK PA
ĠK icking
Ġpl ural
Ġsh ame
ĠU tt
ov sky
ĠSt age
ast rum
Ġsp inning
rit es
oun ce
ĠV el
ĠV enge
ru b
Ġcont ing
Ġcont ests
Ġint im
ater nal
Ġad orn
ry ing
Ġrec on
ond e
ĠTh irty
Ġper m
ile y
ĠAl tern
Ġdis par
Ġdis advant
lud es
Ġj ail
Ġj okes
act ic
ang s
Ġatt ain
ĠOn line
vel t
ose velt
ĠUn limited
ĠAn alysis
old ing
Ġtr ace
ft ime
ĠMar vel
ĠEn nis
Ġrel ates
ob ia
Ġend uring
Ġpr ay
Ġsub mit
Ġret ro
ĠNew ell
Ġinter im
Ġinter ven
Ġco aches
ific ant
ĠRe ports
lect ions
ĠSh i
ĠBrit t
Ġtrans p
Ġback wards
Ġperform ers
ident ified
Ġem pt
ĠZ o
Ġmon itor
inn ati
Ġteam mates
Ġmill s
Ġsign als
ĠIs is
Ġrun ner
Ġinst inct
Ġdist ress
ĠGer ry
ĠBl air
Ġcar riage
Ġgener ations
ĠPl ace
Ġph araoh
ĠCl aws
Ġsmall est
ĠAd vert
Ġgu ided
anc ouver
Ġprot ector
Ġprot ecting
ret ion
Ġconf ined
Ġshort age
Ġsl ab
ĠAnd ers
ĠGe astrum
Ġpar an
Ġorgan s
Ġorgan ize
Ġperiod ically
aster ly
ĠBy z
Ġcap itals
Ġstory t
Ġmonth ly
ĠÂ ²
Ġhal ftime
ĠPr ison
ĠOr chestra
ott a
Ġdra ins
ĠChar med
ĠChar acters
Ġmid night
Ġcr ack
Ġconv oys
Ġconv icted
Ġsol ic
Ġtimes lot
osp here
Ġobs er
ĠEd ith
Ġmanag ers
Ġeight eenth
ĠJack ie
Ġcat aly
Ġlim bs
Ġpra et
ĠHar bor
ĠGl itter
Ġadm ired
ĠEx it
Ġbo hem
ĠCal der
Ġnovel ist
idd ing
Ġnational ist
Ġlik es
Ġ31 7
ounc ill
umb led
umb ria
Ġstri ps
Ġbroad er
ĠMad res
Ġarg ue
Ġhost ing
ĠMo ors
Ġren t
ĠBo o
Ġ186 7
ĠCr ush
Ġmer ging
Ġlength s
uk a
ĠQu est
Ġesc al
ĠVal uable
ĠAc ross
ĠGr ac
Ġslow er
ĠThat gam
ĠAnt ar
Ġkey boards
Ġdi ary
Ġder iv
ĠFI BA
Ġlab elled
ĠSov ets
Ġshoot er
Ġgrant ing
Ġcle ver
Ġamb ition
Ġcommission er
Ġcommission ing
ĠMinn eapolis
Ġjud icial
Ġflight less
Ġphot os
Ġhealth y
Ġlif t
ĠCont in
ĠTrans it
ĠGo ogle
Ġpay ments
Ġtalk ed
Ġtax es
ĠCons erv
ĠCons ervative
oura ble
ĠJul ia
ĠRo osevelt
Ġdemonst rate
ĠHait ians
ĠDef ensive
Ġscient ist
ĠFer b
Ġspread ing
ĠCra ig
Ġ65 0
Ġexhib its
Ġyellow ish
Ġmechan ics
Ġadj ust
ĠHu ai
onn ie
ĠLis bon
ĠLis zt
Ġrepe at
Ġsens ation
Ġtarget ing
ĠSo ft
Ġacad emy
Ġresemb ling
ĠDun can
Ġut ter
Ġbank rupt
ĠCold play
Ġflank ed
ĠPho ebe
Ġmort al
Ġdial og
ĠNH C
ĠEll en
ĠRel ations
ĠCle an
ĠRod rig
Ġmush rooms
ĠBarb ie
Ġsurvey s
Ġnegot iate
ĠMov ement
ĠBi ographer
Ġlegend s
Ġlit ter
ĠDi arm
Ġru in
Ġexerc ises
Ġjoint ly
ĠMarsh all
ĠTrib une
ĠBos i
Ġunn ecess
Ġvolunte ered
Ġleuk emic
á» ĩ
Ġic onic
ĠCab o
ĠCab ral
cho ly
Ġconstitution al
nell um
ĠTest ament
ĠSher idan
ĠBron ze
Ġconsult ant
Ġcustom ers
Ġinaug uration
Ġdivers ion
Ġmusc le
Ġow ed
ĠPict ish
ĠUr n
Ġdisappoint ing
Ġdisappoint ment
Ġfeed back
Ġinterpret ations
Ġdream s
ĠBlood y
Ġrelie ve
Ġattrib ute
Ġreprodu ction
ĠUnivers e
Ġteen age
ĠShel ley
ĠShel by
Ġbulk head
Ġuncertain ty
Ġadopt ion
ĠCond oms
Ġbattlecru iser
Ġvalid ity
Ġdiagn osis
ĠMichel le
ĠEy e
Ġshaft s
ĠVeer asha
ĠPlan et
ĠObser vers
ĠLind say
ĠHyd nellum
ĠIndones ia
Ġfacil itated
Ġneighb oring
Ġinher it
Ġsew age
Ġcompens ation
ĠPic ard
Ġsubsid iary
ĠBulgar ian
ĠAuthor ity
ĠColl ins
underst ood
Ġshru bs
Ġreun ited
Ġinsurg ents
Ġpersist ent
Ġjuven ile
Ġjuven iles
Ġmathemat ics
ĠKrist ians
ĠVik ing
Ġedit orial
Ġintegr ated
Ġnut ri
ĠMyc ena
ĠRic ci
Ġpled ged
ĠEug ene
Ġsurpass ed
Ġairfield s
Ġantagon ist
Ġinvent ory
hous er
ĠBoot leg
Ġpian ist
ĠSey m
Ġguerr illa
Ġmos que
Ġrout ine
issart ensis
Ġencourag ing
Ġsatir ical
Ġskelet ons
Ġlib ret
Ġabst ract
ĠThan houser
Ġdiff ers
ĠTrip oli
ĠHond uras
Ġepit het
Ġworsh ipped
pow der
Ġhaz ard
ĠVaishn ava
ĠWoods boro
ĠBreed ers
ĠDisapp eared
Ġwis dom
ĠDuc hess
Ġartef acts
ĠHyder abad
Ġbern issartensis
ĠMood y
Ġecclesi astical
ĠGof raid
ĠOric on
ĠThatgam ecompany
5 5
9 1
D OT
L A
P ol
R S
a fer
b ied
b ons
b rand
c ian
c ourt
d y
e a
l imin
m other
n ery
p it
t op
v ae
z uel
Ã ª
Ð µ
ã Ģ
Ġ ãĢ
Ġt ab
in oc
Ġthe ft
Ġs ins
Ġo h
Ġo ath
Ġo mitted
Ġw itch
Ġw ounds
nd s
at aka
or row
or igin
it i
it ime
Ġc av
Ġc urric
Ġc ott
Ġc apped
Ġf a
Ġf ro
Ġf inger
is i
is ch
an ic
al ine
Ġp ent
Ġp am
Ġp enn
Ġp ipes
Ġp anther
Ġp neum
ro e
ic herry
Ġm ock
Ġm isc
Ġm asc
Ġm osa
Ġd red
Ġd irt
Ġh ab
le ased
ĠT ina
ĠT otten
ĠT resc
Ġre ly
ĠA ber
ĠA gg
ĠA mede
ĠS P
ĠS ons
ĠS ank
ĠS pr
ĠS ister
Ġth underst
ĠC d
ĠC ai
ĠC inc
ĠC urrently
om o
om ics
Ġl am
Ġl ingu
am pton
Ġe ct
Ġn u
ĠM um
ĠM ind
ĠM ans
ĠM oney
ĠM aine
ĠB reak
ĠI c
et ter
ol ate
ir p
ir able
ot enic
ĠH ear
ĠH ost
ĠH ank
ĠH unt
ĠH orus
ĠH inge
Ġst o
Ġst aging
ĠP ike
ĠR iv
ĠR um
ĠR ous
ĠR ank
ĠR esc
ĠR uf
ĠD y
ĠD anish
ĠF ing
ĠF ass
Ġwh ites
ul an
ul ous
ch air
ĠW A
ĠW H
ĠW R
ĠW el
ĠW int
ĠW ied
ĠW ica
Ġcon fer
ĠG lee
and ering
Ġan al
Ġan alog
est y
ri um
ri ans
res ist
Ġv i
Ġv est
Ġv ague
Ġsu ck
Ġr idges
Ġch oral
ĠK or
ĠK iss
qu al
Ġsh aring
Ġsh apes
ĠSt ri
ĠSt rat
ĠSt range
Ġy lide
Ġle ased
ord e
ish na
ĠCh ay
Ġun identified
ĠV ene
ĠV ocal
ĠV ancouver
Ġar rows
ff ord
Ġcl ip
end ers
Ġab rupt
Ġro d
Ġro s
Ġsc andal
pl ant
Ġen abling
ĠY osh
Ġout lets
Ġout numbered
Ġfin s
Ġfin ance
ren adier
int ing
ĠAn s
Ġbet ray
Ġkn ife
Ġkn ights
Ġdec ree
oth ick
Ġrel at
Ġunder way
ĠCom plex
ĠAr men
Ġchar itable
ron om
Ġreg ards
Ġass ets
Ġsub pl
Ġsub urban
Ġso ap
Ġso ils
Ġret ains
Ġacc idents
ĠLe x
ann on
ĠRe action
ĠSh o
ĠSh ah
ĠSh iban
Ġent ity
Ġsur veillance
ĠSc ar
Ġgo at
Ġem br
ĠZ one
ĠZ immer
Ġlong time
Ġ15 00
Ġmet ropolitan
Ġsm oking
az on
Ġcrit ique
Ġdisc ern
Ġinf ant
Ġins ect
Ġmil it
Ã© m
itt ings
Ġcar ving
Ġgener ate
Ġdesign ers
ĠAugust us
Ġopen ly
Ġopen ings
Ġsuccess es
erv isa
Ġele g
ient ious
ĠDe b
Ġgu ys
Ġgu ards
ĠAll Music
ling ton
Ġreport ing
ox ide
ĠBe et
ĠBe eth
ĠNov a
get own
Ġport ico
Ġconf isc
Ġref urb
Ġdiffer ently
ĠAnd h
Ġorgan isms
ĠPh ineas
ĠPr as
Ġmark ings
Ġdem ons
Ġdem ise
ĠBro ward
Ġrepl ay
aken ing
ung le
Ġbas al
ĠTr in
ĠBatt les
ĠX V
ĠX u
yn e
ĠTe le
Ġel ong
Ġevery where
ĠAm ateur
Ġcommun al
Ġprof itable
Ġconv ective
Ġpat ri
ĠSu ff
Ġread s
aun a
Ġsound ed
Ġgl am
Ġactiv ist
Ġactiv ists
Ġlaw yers
Ġred dish
Ġdecl ines
ĠOl af
Ġste aling
Ġcampaign ed
ĠGrand e
oid s
istic ated
Ġburn t
ĠMed dings
Ġir re
Ġaccept ing
ĠMin h
Ġsaw m
Ġmot ivated
ĠFlor a
Ġmean while
Ġ186 9
ĠCr isis
ĠCr usade
Ġprob able
Ġaccount ing
Ġneg atively
ĠIndian a
Ġ187 3
Ġly ric
ĠMont agu
Ã³ w
Ġhard ly
Ġtransport ing
Ġphys ician
Ġtest ified
Ġcal ib
Ġbill ed
Ġfail ures
Ġimm ense
Ġsem en
ĠStud ents
Ġemb ro
Ġemb ark
ĠFort une
Ġprior ity
ĠUnder wood
Ġche ap
Ġche ese
ĠFI SA
ĠLight ning
Ġradio active
ĠEarth realm
Ġattract ing
ĠTre asury
Ġlog o
Ġlog ical
Ġlog istical
ĠSecond ary
Ġreject s
ĠTenn ant
Ġhero in
ĠFin ley
ĠDem ocrat
ĠRam on
Ġinvestig ations
Ġ182 5
Ġprec ious
Ġmax im
Ġconstit uted
ĠBre ese
Ġbene ficial
ĠJul ius
Ġmodel ed
ĠRo oms
ĠBurn ley
Ġelev ations
Ġsust ain
ĠAnn ual
Ġqual ities
Ġox idation
Ġwithdraw ing
Ġillust rate
ĠCommission er
Ã¼ r
ĠGre cian
Ġseek s
Ġmic ros
Ġmoment um
Ġcust ody
Ġcouncil s
Ġec ology
eg ro
ĠLeg ion
Äĩ a
Ġmo ored
Ġdrop s
Ġvirt u
Ġfictional ized
Ġspons or
Ġstret ches
Ġparalle ls
ĠConn ectic
Ġsubt le
ĠQedar ite
ĠGram mar
ĠPhoen ician
Ġgal er
Ġlov es
Ġimpr int
Ġpros ecut
Ġlic ence
Ġupd ate
ĠLoc ke
Ġphilosoph ical
ĠTs ub
Ġ91 0
Ġsynthes ized
Ġcarbon aria
ĠNap a
Ġshark s
Ġsulf ur
Ġancest or
ĠKit ty
ĠCorn wall
Ġlob ster
Ġlob bied
Ġdepos it
Ġdepos ited
ĠDiv isions
Ġalleg iance
Ġverte bra
Ġgoddess es
Ġtight ly
Ġfram ed
Ġoutl ined
ĠDAG s
ĠRecord ings
ĠEle ph
Ġadvis ory
Ġfant astic
ĠPow der
Ġteen ager
ĠUlt imate
Ġcommemor ated
ĠFem ales
Ġdict ator
Ġdiver ted
ĠPolit ical
Ġped est
ĠSat ake
ĠCase y
ĠBald win
Ġabol ition
Ġrevol t
Ġencl osed
ĠAndre a
Ġdevast ated
ĠBou levard
fe it
Ġpron ounced
Ġcomfort able
Ġzomb ie
ĠBosn ia
ĠLess er
ĠInvest igations
Ġexceed ing
Ġenforce ment
Ġacceler ated
ĠCov enant
Ġplag ued
ĠTow ards
ĠGabri el
Ġgran ite
Ġstall ion
ĠGross man
Ġconven ient
ĠMonten egro
Ġcounteratt ack
Ġol ive
Ġenact ed
ĠCruiser weight
ĠPD R
ĠGry llotal
ĠWilf rid
ĠScleroderm at
Ġhairst yle
ĠLauren ce
ĠHew itt
Ġbacter ia
ĠChanc ellor
Ġunve iled
Ġagar ic
Ġjuris diction
ĠLaur a
Ġflatt ened
elsk ap
iob ook
ĠIU CN
ĠSchol ars
Ġhybr id
Ġoverlook ed
Ġtob acco
ĠAuck land
ĠCz ech
ĠFrid ay
ĠLik ewise
ĠVert igo
ĠOttom ans
ĠTemp est
ĠMcDou gal
ĠBile Äĩa
ĠBasket ball
Ġpraet ervisa
Ġunnecess ary
ĠRicci ardo
ĠSeym our
ĠTresc othick
ĠAmede o
ĠCinc innati
ĠFass l
ĠWint ory
ĠVene zuel
ĠBeeth oven
ĠConnectic ut
B I
C d
S S
W er
c ol
f u
f inger
h all
h yd
l ake
m ire
n am
n ie
o qu
p ah
r ac
u ity
v as
v ag
v ana
w er
w yn
Î ½
Ï Ħ
Ġ ×
Ġt in
Ġt ired
he a
he res
he tt
Ġa ims
in as
in te
er ation
on ance
re ced
Ġs urn
at ri
at hed
at ics
it ul
en que
Ġf are
Ġf ret
Ġf itting
ar er
ar is
Ġb ou
Ġb ag
Ġb io
Ġb ells
Ġb ugs
an ium
Ġin app
Ġin put
Ġp es
Ġp orn
Ġp ays
Ġp agoda
ic uous
Ġm aid
Ġm uzz
Ġh ur
Ġh ilar
Ġh oney
le nd
ĠT rom
ĠT ull
ĠT rent
ĠT yr
ĠA ret
ĠS ett
ĠS ipp
ĠS anti
ĠC reat
ĠC row
ĠC ool
ĠC ounter
ĠC aen
el ong
om ore
Ġl uc
Ġl aps
Ġl ocked
Ġn ost
Ġn ude
Ġn atives
ad en
ad ers
ĠM ent
ĠM ake
ur ated
ĠB ever
ĠB ros
ĠB rent
ĠI bra
Ġg ases
et ers
id ity
ĠH its
ĠH erm
ĠH eller
us z
us ive
Ġst ake
ut land
ĠP ed
ĠP ent
ĠP ale
ĠP iano
ĠP iper
Ġbe que
ĠR i
ĠR us
ĠR ab
th a
th ood
th ane
ĠD re
ĠD im
ĠD iss
ĠD ictionary
ĠF a
ĠF ork
ul ance
Ġal ert
ĠW es
ĠW ake
ĠW ern
ĠW anna
ĠW izards
ĠG iant
os hi
ĠL en
ĠL iv
ĠL ov
ĠL angu
ĠL anding
ĠL ano
ĠL ulu
ĠL erner
ĠN as
ĠN um
est ial
ĠJ utland
Ġhe red
ĠE lection
Ġv it
Ġv ap
pp e
Ġr er
Ġse ap
Ġse eds
ew ard
ew rit
ew ays
art et
ak h
Ġch ron
Ġch ambers
ud ing
ber ys
Ġex empt
pt ide
ĠK in
ĠK ick
Ġpl ague
Ġsh ocked
ĠU P
ĠU day
ov al
ast rous
Ġnot or
ell ular
ap ul
ĠCh as
og rams
ĠV iew
ĠV ernon
Ġcomp uls
ure thane
Ġint ric
ok er
ok rat
Ġcl uster
ass ment
Ġad olesc
Ġper ce
Ġsc iences
pl ing
Ġdis astrous
are z
Ġj ar
Ġj ih
act or
Ġdes ires
Ġdes erted
Ġen forced
Ġatt itudes
ice a
Ġout ages
Ġpre ference
ĠUn ic
Ġfe as
Ġtr aced
ĠMar ÃŃa
Ġcan opy
ĠEn c
Ġme g
ob l
orn e
Ġlater al
Ġreg ulate
Ġass ignment
ĠSe vent
Ġsub stituted
Ġra iding
Ġlar vae
Ġdef ine
ĠRe ub
ĠSh ield
Ġent renched
Ġno ct
aj i
aj uku
Ġpres um
Ġpres umed
Ġepis cop
ram er
Ġback up
Ġback drop
ern ess
ĠZ omb
Ġdevelop s
Ġcre ates
Ġsm art
ah ar
Ġrev ision
Ġmay be
Ġcrit eria
Ġdisc ipl
Ġdist ract
Ġoper ative
Ġwar riors
Ġair space
ĠSp ect
Ġgr ants
Ġgu ests
Ġdet on
yc he
omet ry
Ġserv ants
Ġdiffer ed
Ġposs essing
Ġtri angle
Ġvis ions
Ġpar odies
Ġwater way
ĠEurope ans
Ġfur s
Ġtyp ewrit
Ġhal t
ĠPr ism
ĠOr n
Ġpresent ing
Ġview er
ĠWe ber
ĠX I
ĠRec overy
ĠRec lamation
Ġarch itects
ĠPer haps
Ġfind ings
ĠCanad ians
ĠCount ies
Ġconv inc
Ġconv entions
Ġsol ving
ĠPol es
ĠSte in
Ġpat ient
ĠEd g
Ġfact ions
iec es
af e
ĠHar ajuku
Ġide ology
Ġbar riers
ĠPal enque
ĠRich ards
Ġfather s
ĠTo o
Ġsw ift
Ġpit chers
ĠHigh lands
Ġste als
ĠSw an
Ġredu ces
Ġsuper ficial
Ġcolle ges
Ġlet ting
Ġfif teenth
Ġagre ements
Ġprofess ors
Ġrecogn ise
ĠSer g
Ġfar mer
Ġdev il
Ġ188 7
Ġmiss ile
Ġ35 8
Ġresear ched
Ġcontract ing
ĠMo ham
Ġnar ration
ĠGal entine
Ġ186 4
ĠEm b
Ġtravel ers
ĠHouse hold
Ġemploy ing
Ġbur st
Ġregard less
Ġobject ions
ĠQu ite
Ġfootball er
Ġtreat ments
Ġdiss olved
ĠFe ast
ĠAg ust
Ġtrib al
Ġpur ple
ĠCard inals
Ġintens ification
Ġhard cover
ĠNot es
Ġexcept ions
Ġexcept ional
ĠVar iety
Ġcru el
Ġcal endar
Ġ184 4
Ġscore less
Ġforest ed
ĠLaw s
ĠTer ror
ĠRose berys
Ġimm ature
Ġimm inent
ios ity
ĠFrank f
Ġvot ers
Ġexam ine
Ġdomin ance
Ġscreen writ
Ġconclud ing
Ġund ers
ĠNic ol
ĠOtt o
ĠSur rey
Ġuns ure
Ġcounter parts
Ġdram atically
Ġgirl friend
ĠTw ice
ĠTra fford
Ġemer ge
Ġkind erg
Ġreject ion
ĠRob ot
Ġhero ic
Ġcollect or
Ġexperi encing
Ġpay ment
Ġtax a
Ġpick ing
isher s
Ġcelebr ating
ĠRad ical
Ġtext ile
ĠAlex and
Ġmagn et
Ġcorn ers
Ġquestion ing
Ġdispl aying
Ġcrowd ed
Ġextra vag
ĠAndrew s
Ġgrass land
ĠCap illa
Ġcandid acy
Ġhun ter
Ġhun ted
Ġillust ration
Ġrang ed
Ġfolk lore
Ġincorpor ate
Ġdoub ts
Ġhom eless
udd ers
Ġiron ic
ĠWrit ers
ĠPen elope
gn ine
Ġsand stone
Ġdoct r
Ġdoct ors
Ġcust omer
Ġunp reced
Ġcompr ise
ĠRog ers
Ġgar age
ĠLu ke
roph ic
ĠLes ter
Ġcolumn ist
Ġdeliver ing
ĠAdv ance
add y
Ġ179 0
Ġ179 4
ĠEll iott
Ġarc ade
Ġmig rate
Ġfaith ful
Ġbenef its
ĠMot ion
Ġrac ist
ĠBrook lyn
BS A
OC A
ĠBor gnine
Ġ175 9
ĠWind ows
ĠPrinc ipe
ĠGra ves
Ġexplos ions
ĠStevens on
Ġsan ctioned
Ġharm ony
ĠML s
ĠTrib ble
Ġbond s
Ġaccur ately
Ġscholar ly
Ġfle ets
utt a
utt le
ĠDisc overy
Ġdecor ative
Ġcitiz en
Ġshif ts
Ġshif ting
ĠPass ion
Ġorn ament
ĠJoy ce
Ġimpl ied
Ġow l
Ġansw ers
Ġobl igation
chang es
ĠMother well
Ġoutl aw
Ġdivor ced
ĠDh ang
Ġbord ering
ĠBeh av
Ġfuner ary
Ġdwarf s
ĠLamb ton
Ġoffs pring
aks in
Ġcoinc ided
idel ity
Ġnom ine
Ġquant ity
Ġantiqu ity
Ġenthus ias
Ġsupplement ed
ĠAf ghan
Ġintercept ions
Ġfacil itate
Ġdevast ating
Ġcompens ate
Ġprofession ally
Ġtut or
Ġgor illa
ĠHit ler
Ġforg otten
ĠHem isphere
ĠKle ine
ĠStand ard
Ġing red
ĠLegend s
Ġguarant ee
Ġportr ays
Ġplag iar
Ġlegit imate
Ġsoph omore
ĠSaf ety
ĠUk raine
Ġmoist ure
Ġmit ochond
ĠLem on
ĠHein rich
Ġsummar ized
Ġcel estial
apter iscus
Ġpione ering
iÃ¨ re
ĠAw akening
ĠSic ily
ĠTrad itional
Ġenthusi astic
ĠKr ishna
ĠAndr Ã©
Ġswit ching
Ġdisappear ance
Ġreconstruct ed
Ġine ff
Ġdischar ge
ÅĦ ski
ĠPear l
Ġsuperst ructure
ĠAppro ximately
Ġprolong ed
ĠCert ifications
Ġanalys es
Ġmonaster y
Ġmelod ram
oresc ence
Ġembry os
ĠBroadcast ing
ĠAval on
ĠSylv ia
Ġnons ense
ĠBore as
iffer ent
Ġarcher y
ĠGameSp ot
Ġunh appy
Ġremaster ed
Ġempl acements
ĠIndivid ual
ĠFranÃ§ ois
Ġlambe osaur
Ġinex per
Ġtouc hed
ĠJas per
Ġprehist oric
ĠPorts mouth
roloph us
Ġculmin ating
ĠGlam organ
Ġenvision ed
ĠFol iot
Ġbohem ica
ĠVeerasha iva
limin ary
origin al
Ġpam ph
ĠPras ad
Ġgaler icul
ĠEleph anta
ĠPowder finger
Wer ff
Ġinapp ropri
ĠAret usa
ĠSipp y
ĠSanti ago
ĠIbra h
Ġunpreced ented
ĠAfghan istan
3 8
4 1
5 0
C P
D er
F C
G B
N H
R I
a ig
b en
c ans
c ott
d ick
f ri
f old
g ge
g rove
h ot
i enced
j ing
j ust
k ok
l ong
p es
r ades
s he
s ka
t age
u i
u arius
v ol
v ous
v ogns
w orld
w right
w aters
y ards
y uan
z an
z co
§ ÙĦ
Ġ á
Ġt ips
Ġt ables
Ġa ven
Ġa ux
on ing
re a
Ġs ou
Ġs pp
Ġs ab
Ġs que
nd um
at em
at ile
or g
or o
Ġc oy
Ġc ros
Ġc ivic
Ġf use
is se
is aurus
Ġin ade
Ġin ev
Ġp el
Ġp ump
as ian
ro b
ro qu
Ġm ates
Ġd w
Ġd an
Ġd itch
Ġh aw
Ġh ole
Ġh ides
Ġh ailed
Ġh iding
le z
ĠT erm
ĠT aking
ĠT anz
ĠA U
ĠA V
ĠA chie
ĠA AA
ĠS K
ĠS U
ĠS ue
ĠS aid
ĠS ier
ĠS eth
st idia
ĠC B
ĠC i
ĠC el
el bach
Ġl ined
Ġl unch
Ġl abyrinth
Ġe S
Ġn em
Ġwas ps
ĠM old
ĠM ale
ĠM urch
ĠM au
ĠM ys
ĠM anning
ĠM ental
ĠThe a
ec hes
ly ph
ĠB P
ĠB ard
ĠB ram
ĠB omb
Ġg ig
Ġg ag
Ġg ear
Ġg ust
Ġg ym
Ġg ully
Ġg ems
ol ades
id o
id ium
ig ouche
ĠH ass
ĠH ence
ĠH ull
ĠH ipp
us her
ow itz
Ġst ressed
ĠP ain
ĠP ars
ĠP aper
ĠP eck
Ġbe nd
Ġbe ast
Ġbe ads
her ical
ĠR are
ĠR ise
ĠR ena
th rough
ĠD oo
ĠD raw
ĠD ante
ĠF ind
ĠF OCA
Ġal k
ch ild
ĠW ÅĤ
ĠW uz
ĠW adi
Ġcon jo
ĠG C
ĠG el
ĠG am
ĠG ama
ĠG aming
ĠL P
ĠL on
ĠL ing
ĠL act
ĠL oss
ĠL SU
ĠN os
ĠN ike
Ġat ions
Ġan x
Ġan gl
est ine
ĠJ azz
ag ar
ag ara
ain es
ĠE rics
ĠE ighth
ĠE thi
ĠO gh
op ia
ill ion
ĠIn ocy
Ġr ic
Ġr im
Ġr uth
Ġr ats
Ġse al
Ġse aw
all us
art ments
Ġch ip
ant he
ant ara
ud ding
Ġex ceeded
ĠK ay
ĠK ai
ĠK urst
ĠU d
ov E
ĠSt rait
Ġsp are
Ġsp lin
Ġsp anning
Ġsp iders
Ġsp arked
ord a
ord ers
our ning
Ġu ph
ust rated
Ġun ite
Ġun used
Ġun beat
ĠV ing
ĠV ery
ĠV atic
Ġcont am
Ġint entions
Ġar ise
Ġar sen
Ġar bit
hed on
out ing
ran o
ie g
Ġab dom
ĠHe y
ĠTh arp
ĠTh aksin
Ġper mit
Ġper ipher
ĠAl ien
Ġdis emb
ach i
Ġj e
Ġman or
ount ed
Ġover ly
Ġen light
ĠY ah
urn al
ace y
Ġout g
Ġout rage
Ġcomm ence
ix ed
ĠAn ime
att y
ug a
Ġrel ate
ĠCom ing
Ġne u
Ġne on
Ġfl ocks
Ġpos ed
Ġreg ener
Ġass ists
ĠSe lect
Ġsub m
Ġsub cont
Ġpe ers
Ġret aliation
Ġqu otes
Ġinter m
Ġra b
Ġra pper
Ġbu ying
Ġam ber
ĠRe ala
Ġdo zens
ĠSh op
ĠSh awn
Ġep id
Ġsupp ress
Ġfound ations
ird elbach
Ġtra uma
Ġ12 4
ĠSc hed
ĠSc apa
ĠSc ratch
ise vogns
irect ed
Ġtrans itive
Ġrece iver
Ġdep ressed
Ġdep rec
Ġdep ressions
Ġmon ks
Ġop ener
yl a
Ġmin im
Ġrep ublic
Ġconc olor
Ġrev is
Ġpol es
ĠBr id
ĠCon v
ĠCon rad
Ġdown s
Ġdisc r
Ġdisc retion
Ġinf ections
ĠBl of
Ġgener ating
ony ms
Ġcount ed
ĠSp y
ĠSp ector
ĠSp isevogns
ĠCl ive
ĠCol er
Ġmod est
Ġgovern ors
Ġgroup ed
ĠDe Grom
ĠAll iance
ĠPro duct
ĠEu rog
Ġprom ises
Ġmar riages
Ġbuild s
Ġworld s
Ġref usal
Ġsl ot
Ġsl ate
Ġgun nery
Ġposs ibilities
Ġvis ibility
Ġpar am
Ġpar atro
Ġbest s
Ġexpl oring
Ġcommand os
ĠPr imet
ĠOr b
Ġant imon
ĠMan heim
Ġcapt ures
Ġterm inal
Ġdest inations
Ġdra g
Ġdra ined
lu or
Ġdeb ts
Ġsimilar ity
Ġdifferent iation
Ġtot als
ĠBar re
Ġel bow
Ġhalf way
Ġcr ust
Ġ22 1
Ġter restrial
Ġpost er
ĠSte phan
Ġcritic izing
Ġpat rons
Ġpat riarch
Ġgen ius
Ġstruct ured
ground s
ĠReg ional
Ġgl iders
ĠGl orious
Ġnight s
Ġtro phy
ĠTo irdelbach
Ġdecl are
Ġsw amp
Ġrelig ions
gr ass
Ġcoast s
Ġoccur rence
Ġlik ened
Ġfac ial
Ġ31 9
ĠMor oc
Ġmass acre
Ġsex y
Ġbus y
ĠCo ach
Ġcor ruption
Ġir ony
Ġcreat ures
Ġbi ographical
Ġvol ley
Ġz oo
Ġlaun ching
ĠOp Ã©ra
Ġprob ability
ĠMac l
áĥ Ķ
ĠSl av
ih an
Ġrul ers
urt i
ĠTor o
Ġ187 5
Ġgoals c
Ġdiss ol
ĠQue bec
Ġpen alties
Ġpriv acy
Ġ183 9
ĠSchool s
Ġhard er
Ġtest imony
Ġden ial
Ġ184 5
ĠArt ists
Ġsurround ings
Ġcas uarius
ĠEver ett
Ġdisp uted
Ġkey s
Ġaut onom
Ġaut onomy
zz i
Ġimm ers
Ġhapp ening
ĠUnder taker
Ġappl ic
Ġche ek
ĠBel le
ĠArab ian
Ġdomin ate
Ġfir ms
ĠMil an
Ġcounter part
Ġprem ises
ĠFore ver
Ġamb ushed
ĠBec k
ĠBen adir
Ġreach ability
Ġacqu iring
ĠTra vel
ĠTra vis
Ġdism ant
Ġbox es
Ġrein st
Ġjud ges
ĠRob bie
Ġsal ts
ĠDem okrat
ĠLou ise
ĠLo han
Ġimpact s
Ġrecover ing
Ġinteract ive
ĠAI F
Ġ51 6
ĠBet ter
Ġ182 4
Ġtext ure
ãĥ «
Ġrelief s
Ġpaper back
ĠBol iv
ĠJul ie
ĠDist inguished
ĠBalt ic
ĠRo ch
Ġdraft s
ĠAv iv
Ġdemonst rating
Ġscul pted
ĠDou g
Ġnarrow er
Ã¨ me
ĠVan Der
ĠHu izong
ij i
Ġincorpor ating
ĠHistor ically
Ġthir teenth
ĠKn ight
Ġfung al
Ġenter prise
bl ock
Ġsand y
ĠField s
Ġcampus es
ĠRy der
ĠRet aliation
Ġdefin itive
ĠBas in
Ġcompar atively
Ġcompar isons
Ġresemb lance
Ġprotest ed
ĠLiber ation
Ġvirt ual
Ġstrik es
ĠDomin ion
ĠRel igious
Ġbass ist
ĠJain ism
Ġglob e
thes is
ĠJac ques
Ġcool ing
Å¡ ka
ĠPers ians
Ġtall est
Ġtend ency
ĠTeam s
Ġjack et
Ġign ore
Ġtrou bled
Ġfashion able
Ġcra zy
ĠLow e
Ġrob ot
Ġpack ed
ĠAbb ot
Ġcourts hip
Ġcry stal
ĠInit ial
Ġaccur acy
ĠJun o
adow ed
ĠPan ama
ĠAnc ients
Ġgrav itational
Ġintention ally
Ġlob by
Ġsight ings
ĠHun ting
Ġanth ology
ĠBron x
Ġagree ing
Ġobl ig
Ġsuperior ity
Ġpure ly
ĠBang kok
Ġille g
Ġ166 0
Ġsatisf y
ĠJenn a
ĠRest aur
ĠRest igouche
ĠProm otion
Ġmerch ants
Ġcopy right
Ġautom atic
Ġrecru iting
Ġconsol es
Ġvul gar
ĠMagdal ene
Ġmyc ologist
Ġinstall ation
Ġalleged ly
ĠGlob al
ĠIraq i
erg renadier
Ġprincip ally
bre aker
Ġceratops ian
ĠBrand on
ĠSay id
ĠEy es
Ġgray ish
ĠPolit ics
Ġsuperv ision
ĠNat al
Ġmir ror
ĠPanz ergrenadier
Ġenzym e
Ġsket ches
ĠImm ortal
Ġsemif inal
ĠHyd e
Ġintercept ed
ĠAndre as
Ġprofession als
Ġsevent eenth
ĠSyn opsis
ĠDod ge
ĠKau ai
ĠFut ure
ĠBeau f
Ġrecommend ations
Ġhym en
ĠHonor ary
ĠMong olia
ĠHarv ard
ĠRat ings
Ġecc ent
Ġunw illing
Ġdece ased
Ġaffil iated
Ġreward ed
ĠStat istics
Ġprest ige
Ġprest igious
Ġsoph isticated
Ġrejo ined
Ġgentle man
Ġexecut ives
Ġenroll ed
ĠExper ience
ĠBod Ã¸
Ġdisgu ised
Ġconspir acy
ĠØ §ÙĦ
Ġwonder ful
ĠPra irie
Ġincred ible
Ġrepet itive
ĠForb es
Ġparad ox
ĠSour ce
Ġoutd oor
Ġconfron ted
Ġmemoir s
Ġdynam ics
ĠAmylostere um
Ġdign ity
ĠMap le
Ġmaneu ver
Ġcyl ind
Ġspor adic
Ġcliff s
Ġdigit ally
Ġbesie ged
Ġmammal ian
Ġpir ate
ĠKend all
Ġannex ed
Ġalgorith m
fam ily
Ġcub ic
Ġlas er
ĠKarn ataka
Ġmidfield er
ĠSquad rons
ĠDescrib ed
Ġtran se
Ġtheolog ians
Ġpock et
ĠCore y
Ġank le
Ġunemploy ment
Ġironc lad
Ġmason ry
Ġvow el
Ġirrig ation
ĠCamer on
Ġrehabil itation
Ġma at
ĠHast ings
Ġvass al
Ġgalax y
pect ives
Ġmaj ors
ĠNig el
Ġcrimin als
Ġpostp oned
ĠEnvironment al
ĠAmp s
ĠPeng u
ĠDangerous ly
ĠAngl ican
ĠRF U
Ġvet o
Ġinvertebr ates
Ġpist ols
ĠPt ole
ĠNail z
ĠOro zco
ĠVenge ur
ĠByz antine
ĠDiarm ait
Ġpneum onia
ĠIc eland
ĠResc ue
resist ible
ĠStrat ford
Ġvertebra e
ĠSclerodermat ineae
itul ovE
Ġmuzz le
ĠBever ly
ĠLano is
ĠNum erous
ĠReub ens
Ġkinderg arten
Ġinade qu
ĠSier ra
ĠWuz hu
ĠErics son
ĠKurst in
Ġunbeat en
ĠBlof eld
ĠSpisevogns elskap
ĠEurog amer
ĠPrimet ime
ĠDemokrat en
ĠVanDer Werff
M P
b age
d ed
g il
g one
h or
j ee
k ind
l ain
l ank
m ons
o que
p unct
p ieces
s Ã¸
t ail
t ze
t ender
w ig
w alk
y i
z el
Ñ Ģ
ħ n
Ġt um
Ġt ents
Ġt ann
Ġa qu
in ished
in ator
er get
er dale
on ts
re hend
Ġs its
Ġw ond
at itude
it ement
Ġc ig
Ġf used
Ġf aint
Ġf rog
Ġf raction
Ġf auna
Ġf onts
is bury
Ġb red
Ġb ars
al id
Ġp ub
Ġp aternal
as i
Ġto ys
ro d
ro x
ro vers
ro gen
ic ious
Ġm ourning
Ġd y
Ġd atabase
Ġh alls
ĠT ep
ĠT att
ĠT ale
ĠT ourn
ĠT oso
ĠT BSA
Ġre int
Ġre ef
ĠA j
ĠS A
ĠS M
ĠS N
ĠS old
ĠS ales
ĠS ihan
Ġth umb
st and
ĠC H
ĠC ay
ĠC od
ĠC ould
ĠC ake
ĠC ock
ĠC ode
ĠC roy
ĠC oul
ĠC aval
ĠC asc
ĠC edar
ĠC ushing
el age
om ach
om obile
Ġl ing
Ġl ords
am ine
Ġn ymph
ad os
ac omo
Ġwas h
Ġwas hed
ĠM ores
ĠM alt
ĠM ills
ĠM AC
ĠM ullen
ĠB j
ĠB oad
ĠB read
ĠB olet
Ġg low
id ered
ir s
ir is
ig ators
ot ations
ĠH at
ĠH ig
ĠH amb
ĠH ilda
Ġst ems
Ġst rang
Ġst alled
Ġst icks
Ġst unning
Ġst omach
ĠP y
ĠP are
ĠP iet
ĠR ange
ĠR ights
ĠR itual
ĠD at
ĠD ere
ĠD ock
ĠD ana
ĠD ragon
em a
ĠF i
ĠF land
ĠF ighter
ĠF CC
ul us
ul atory
Ġal iens
ch a
ĠW ies
ĠW ak
ĠW hedon
Ġcon ced
ra ints
ĠG ren
ĠG az
ĠL ic
ĠL od
ĠL og
ĠL one
ĠL ines
ĠL ope
ĠL ights
ĠL oud
ĠL iga
ĠN est
ĠN ich
ĠN ab
ĠN ord
ĠN ile
ĠN uclear
um as
est e
ĠJ ov
ĠJ ains
Ġhe aling
ist a
od us
ĠE qu
ĠE tymology
ĠE MI
ĠO uter
ĠO ahu
Ġcom rades
Ġv iz
Ġv enge
ĠIn form
Ġr iv
Ġr ational
Ġr iders
Ġr ushes
art ed
art an
ab i
ab olic
ab outs
pt ive
ĠK ot
ĠK art
ĠK ress
ĠK antara
Ġpl ains
Ġsh opping
ĠU m
se en
ĠSt up
ast on
Ġsp ine
Ġsp herical
Ġle ve
ip oli
ĠCh ad
ĠCh all
oun ger
Ġun ac
Ġun ions
ĠV ent
ĠV ig
ĠV asco
ĠV Äĥ
Ġcomp are
Ġcomp artment
Ġcomp artments
Ġint ensive
ub ile
ok ho
ran ces
end ra
Ġres ide
Ġab ort
Ġro ster
ĠTh ir
ĠTh ous
ult imate
ĠAl t
ĠAl tar
Ġdis hes
iz ar
are ll
Ġj aguar
Ġman ned
over ing
Ġen erget
Ġout right
Ġup coming
ens ahl
man uel
Ġev angel
Ġfin anced
port ed
int a
int us
Ġpo res
Ġear s
Ġtr usted
Ġtr unc
ĠMar se
Ġcan yon
ĠEn s
ĠEn ix
ral tar
Ġunder m
ĠCom ic
ob ic
Ġne ared
Ġfl int
Ġpr ayer
Ġreg ulated
Ġsub gen
ĠNew market
Ġspec k
ĠLe Ch
Ġra v
Ġra w
Ġdef ining
Ġdef enses
ĠRe ich
ĠJo ey
Ġdo le
ĠSh am
Ġno itulovE
io ch
ject ed
Ġtra w
Ġtra ps
Ġtra verse
Ġpres idency
iet t
Ġexp ired
Ġtrans cend
Ġtrans plant
Ġsing led
Ġdep osition
ĠZ inc
ĠZ ero
ĠShe en
Ġconc ur
Ġsm ell
Ġrev isions
ik opter
Ġext ract
ĠIs s
Ġrun off
Ġimp erson
Ġins ign
Ġins erted
ĠBl aine
ĠBl uffs
ĠCar rie
ĠCar lo
Ġwar ming
Ġair borne
ĠPl ain
ĠPl aza
Ġ13 6
erv ois
ĠCl an
ĠCl aude
Ġele gans
raph ic
Ġbr ush
ĠAd olf
anc er
ys ÅĤaw
ĠFran ces
ĠGu est
ĠGu err
ĠGu atem
Ġcare taker
Ġstate hood
Ġdet ection
ĠPar as
Ġbuild er
Ġport ed
Ġref it
Ġshort est
Ġshort ened
Ġjust ified
Ġsl ipped
Ġgun powder
Ġtri ang
Ġappro ve
Ġbre ach
ĠPh on
ĠBro ken
Ġcapt ained
Ġlocal ized
Ġstand ings
Ġdra gon
ĠChar ter
Ġsuggest ions
Ġmid st
Ġreal m
Ġtown ships
Ġexc itement
ĠBar rett
Ġel imination
Ġmag ist
Ġprop eller
ĠAm end
ĠAm azon
Ġcommun ists
Ġcr ushed
Ġspe eds
Ġfre estyle
Ġarr ay
ĠPol l
Ġpost ers
Ġpost ure
ĠSte ff
Ġpat rolling
ĠEd wards
Ġsk illed
ĠSu f
work s
ĠEl s
Ġpress ures
Ġprogram mes
sp e
Ġfem inist
Ġord nance
Ġshould ers
aun ch
ĠNe g
aff o
Ġlim iting
oll o
Ġrad ial
ĠHar per
Ġbar row
ĠEx change
Ġtro ut
Ġtechn ically
Ġste gosaur
ĠHam el
Ġcert ificate
Ġpred iction
Ġlik elihood
Ġtre asure
ĠMon uments
Ġrank ings
Ġgoal tender
omm on
Ġstri pped
Ġmother s
Ġassoci ates
Ġsex punct
Ġbus es
Ġcor onation
Ġinsp ir
rict ion
Ġir rit
Ġvol unt
Ġaccept s
Ġhost ilities
ĠBo hem
ĠJew els
ĠCr ime
Ġbur den
ĠMac D
áĥ ¡
áĥ ł
ĠSl ant
Ġrespons ibilities
Ġdesp at
ĠVir gil
Ġviol ated
Ġviol ations
Ġ187 1
Ġinvest ed
ĠHel ikopter
ĠAc re
ĠAc apul
Ġclear ance
Ġquarter f
Ġunc ommon
ĠOs iris
Ġpen ultimate
for ward
Ġ45 0
ĠMy ers
Ġfr ight
Ġcru ising
ĠAnt ioch
Ġden y
Ġaccording ly
Ġaut o
ĠTom orrow
Ġdi able
Ġdead ly
ĠNort on
Ġemb odied
Ġmention ing
ĠSy b
Ġfrequ ented
ĠWood stock
Ġexam ining
ĠMil es
ĠMil ton
ĠMil itia
Ġenv iron
ĠTra ffic
ĠTour ism
Ġbig ger
ĠSol omon
Ġcollect ors
ĠSal mon
ĠSal isbury
ĠBob c
ĠFin ance
Ġpil grim
Ġhusband man
Ġlif elong
Ġdivision al
ĠCont inental
ĠCont rovers
ĠGo ing
Ġsusp ension
Ġsaf ely
Ġpurs uing
oura ged
Ġstra ined
Ġcompos ite
ĠJul es
Ġbackground s
ĠDes ert
ĠBurn side
Ġresc ues
Ġtypes et
Ġ181 8
ĠCivil ian
Ġplant ed
Ġplant ations
Ġmis understood
Ġexcav ated
Ġqual ify
ĠCommun ications
Ġreign ing
ĠBoy z
Ã¨ te
Ġbridge head
ĠMax im
Ġcontact s
ĠArm oured
ĠGall ipoli
ux e
Ġfrag ile
Ġge ological
Ġroll ed
lys is
Ġattend ant
ĠBur ton
Ġminer al
Ġfix ture
ĠCre ation
Ġtim ed
Ġalter ation
ato ire
ĠPublic ation
ĠGi acomo
ĠDen is
Ġfat ig
Ġmort ars
Ġrow ing
Ġprefer ring
Ġmig rants
ĠAer osm
Ġunf inished
ĠJud ge
Ġelimin ating
Ġrac ism
ĠDev on
ĠConst ruct
Ġassass inated
Ġhat red
ĠVol ume
Ġcho osing
Ġ176 6
Ġglass es
Ġrebu ild
anth rop
ĠFire c
ĠSound track
Ġsurviv or
nest y
ĠMid way
ĠDom estic
ĠStef an
Ġworth y
Ġlic ense
ĠDi ocese
Ġresour ce
Ġmonument al
Ġcinem at
Ġinstruct or
ĠMozamb ican
á» ħn
Ġconvers ations
Ġabsor ption
Ġbes ides
Ġpsych iat
Ġib otenic
à¤ ¾
ĠBall iett
Ġretreat ing
Ġsam pled
Ġspaces hip
Ġvac ant
Ġ122 4
ĠTon ight
Ġgross ed
Ġproceed ings
ĠGib raltar
ĠGeoff rey
ĠÎ ¼
ĠLabor intus
Ġcommit ments
ĠBat ou
ĠRom ans
Ġobst ruct
ĠDh arm
ĠBah Ã¡
ĠBah amas
Ġconsol idated
ĠCas ual
ĠImp act
Ġflash back
ĠProfess ional
Ġcyt ogen
ĠTal ent
ĠGro ening
Ġcomed ic
Ġearn ings
Ġtrust ees
Ġsymp ath
Ġexplo its
Ġsupern ova
ĠNL F
Ġcommemor ate
Ġpull ing
ĠCO s
Ġgh ats
ĠMagn olia
idel ines
Ġsurf aced
Ġrenov ated
Ġped al
Ġnom adic
ĠVi enna
Ġantiqu ities
Ġforth coming
Ġstim ulated
Ġeffic iency
Ġneighb ors
ĠMitchell s
Ġben z
Ġben ch
ĠTan aka
Ġpref ers
ĠCit ra
Ġrefere ndum
Ġsubsid ies
Ġfru its
Ġfulf ill
bro ok
ĠOw asco
Ġovers aw
Ġpenet rate
ĠMong ols
Ġprefect ures
Ġmorph ology
ĠVerm ont
Ġendors ed
ĠBeat les
Ġaerodrom e
Ġreag ent
ĠKle in
ĠTak umi
ĠMond lane
ĠFinn ish
Ġobsc ure
Ġcontradict ory
Ġstap les
ĠKer ry
Ġà ¹
Ġindu ced
ĠOcc up
Ġreconc ile
Ġmicroscop y
Ġdeterior ated
ĠProp ag
ĠWorth ing
ĠYang tze
Ġther mal
Ġweigh ing
ĠGabri elle
Ġforb idden
ĠNu eces
Ġcasem ates
Ġunre leased
ĠForb idden
Ġredesign ated
Ġinteg ration
Ġbarrel s
Ġsle nder
ĠAlph a
ĠExpedition ary
ĠKod okan
Ġviewpoint s
Ġhemmem a
Ġimprov ised
ĠLaud erdale
ĠVolunte er
Ġtheoret ical
Ġgrap es
ĠProdu cer
ĠMerc ury
ĠKaram okho
ĠHomar us
ĠArbeider en
ĠMott ola
ĠBelie ve
Ġpunct uation
Ġbunk ers
Ġlun ar
Ġstair case
ĠGP U
á¸ ¥
ĠKaly anas
ĠAlam os
Ġdestruct ive
Ġsupervis or
ĠArchitect ure
Ġeucaly pts
ĠBorder ers
ĠEld er
Ġspokes man
Ġrook ie
ĠHubbard ton
ĠMethod ist
Ġaug mented
ĠNguy á»ħn
Ġproph Ã¨te
Ġris ks
Ġshar ply
Ġconfig uration
Ġcourty ard
Ġsynt hetic
Ġlav ish
Ġgle ba
Ġconting ent
Ġadorn ed
ĠBritt any
Ġobser vers
ĠConserv atoire
ĠSoft ware
ĠKristians and
Ġect omyc
ĠWR U
ĠWied ensahl
Ġelong ated
ĠTrom sÃ¸
ĠWern eth
Ġvap or
Ġjih ad
Ġenthusias m
Ġinappropri ate
Ġcros so
ĠAchie vement
ĠMys ore
Ġconjo ined
ĠLact arius
ĠInocy be
Ġsubcont inent
Ġeccent ric
ĠTep e
ĠSihan ouk
ĠCroy don
ĠCasc ade
ĠMores by
ĠBoad icea
ĠDere k
ĠLope z
ĠLeCh uck
Ġsexpunct atus
ĠAcapul co
Ġenviron ments
ĠAerosm ith
1 2
1 5
D A
F I
G S
H E
S T
S b
b us
b ul
c aster
c ommun
d ong
d een
e eling
f oss
f olk
g ic
h ill
h ard
h ope
k az
l i
l en
l ace
l ining
l itz
m ind
o ing
p ine
q q
r ade
r era
t ropical
u j
u cc
u ction
v als
v arez
y an
z ew
Î ¿
Ï ģ
Ñ Ĥ
Ġ urn
Ġ iod
Ġ ze
Ġt ill
Ġa irst
in ers
in ates
Ġs ap
Ġw it
Ġw ise
or ate
it ans
it ative
Ġc ir
Ġc ass
Ġc aut
Ġc rescent
Ġc ouncill
Ġf ran
Ġf uck
Ġf illing
Ġf ittings
is an
is em
is ure
es a
Ġin ability
Ġin herent
Ġp unk
as ures
ic i
Ġm oth
Ġm arsh
Ġd re
Ġd ive
Ġd ip
Ġd angers
Ġh ire
Ġh one
Ġh omet
ĠT ac
ĠT et
ĠT ol
ĠT ate
ĠT ade
ĠT ank
ĠT ampa
ĠA M
ĠA aron
ĠS ed
ĠS abor
ĠS oph
ĠS isters
ĠS aga
ent e
Ġth ief
st ep
ĠC and
ĠC aus
ĠC yn
ĠC raw
ĠC aught
ĠC unning
ĠC ensus
ĠC arson
el ly
om fort
Ġl ip
Ġl ub
Ġl amp
Ġl ady
Ġl ibr
Ġl ieutenant
Ġl overs
Ġl ighthouse
am is
ad er
ĠM S
ĠM ine
ly mouth
ĠB ac
ĠB ant
ĠB og
ĠB irth
ĠI D
Ġg ill
Ġg reet
Ġg rie
Ġg rab
et ed
ol us
id t
Ġfor wards
ir k
ter ial
ĠH as
ĠH abit
Ġst up
Ġst ops
ĠP ond
ĠP ied
ĠP esc
ĠP uck
ĠP oven
ĠP ayne
ĠP lymouth
ver age
Ġbe head
ĠR att
ĠR ao
ĠD irt
ĠD igg
em ary
ĠF ate
ĠF ford
ĠF anning
ĠF ighting
ĠF ringe
ĠW it
ĠW yn
ĠG at
ĠG le
ĠG aul
ĠG onna
ĠG ospel
ĠG iger
ĠG amer
ĠL ans
ĠL yd
ĠN x
ĠN ant
ĠN SB
Ġan atom
ĠJ et
ag ree
av ier
ri uc
ĠE sp
ĠE lement
ĠO z
op al
op ot
op ers
op ian
Ġsu ed
Ġsu cc
ĠIn ver
ĠIn stitution
Ġr ust
Ġr isen
ew ater
Ġch in
Ġch amp
Ġch ords
ant ically
ud y
oc o
oc ate
Ġex changed
gh ai
pt ions
ess ible
ear y
ĠK w
ĠK he
ĠK ow
ĠK av
ĠK ree
ĠK ids
ĠK rypton
Ġpl ating
Ġpl aque
Ġare n
ĠSt ol
ĠSt oke
ĠSt reets
Ġsp ru
Ġsp ike
Ġsp rites
rit ies
ip se
ell ations
ell ery
ap arte
ĠCh in
ĠCh asing
oun ge
Ġun ified
Ġun changed
ĠV erne
Ġinc ap
Ġcomp ose
Ġcomp osing
Ġbut terfly
Ġar ches
Ġher ald
per ors
ran es
ie u
ie v
Ġres upp
Ġab bre
Ġab bot
Ġrec yc
ĠHe id
ĠHe ath
Ġro pe
ĠAl leg
ĠAl icia
Ġsc rapping
Ġsc ratch
Ġdis gr
Ġdis ruption
Ġdis qual
Ġdis agree
iz hou
Ġj ungle
Ġag round
Ġover h
Ġover sh
ĠY ing
ĠY ounger
ke ley
ang led
Ġatt aining
Ġinto x
we ig
ren s
Ġall ied
ath lon
ep ec
ubl ished
Ġkn eeling
aus ible
Ġnew born
ons c
Ġtr igg
Ġtr igger
ĠMar ina
Ġrel iable
Ġunder going
Ġunder gone
ĠAr r
Ġfl aws
Ġchar m
ron ym
Ġver bal
Ġnum er
Ġass erts
ĠSe ph
Ġpe at
Ġret rospective
ĠNew ton
Ġspec ified
Ġqu ote
Ġwhere by
Ġinter ference
Ġra ft
ific ent
Ġind ication
ann i
ll ister
ĠSh in
ĠSh ang
ĠSh ao
ĠSc ribe
ank ar
Ġwell s
Ġexp elled
Ġexp enses
Ġback ward
Ġem inent
Ġem perors
Ġinv as
Ġdep ot
ĠZ ion
ĠZ ack
ĠZ yg
Ġ11 00
Ġmet eorological
Ġconc essions
Ġsm ugg
az ed
Ġcontin uation
Ġext ras
ĠWh ig
ĠWh ilst
ĠCon cept
ĠCon versely
Ġbel oved
Ġdown ed
Ġimp osing
Ġins ight
ruct ural
Ã© r
Ġprev iew
Ġprev ailed
Ġland own
ĠCar ly
Ġair play
Ġdesign ations
ĠPl anning
Ġmat ched
Ġ13 2
ĠAugust ine
erv ing
Ġcount s
ĠSp ot
ĠCl imate
ĠCol lect
Ġmod elled
Ġgovern ance
Ġbr ide
Ġgr ades
Ġvar iants
ĠPro per
ĠPro to
ĠMe h
ĠMe ad
Ġ14 1
ax ill
ĠGu ards
Ġrest ing
Ġrest ruct
ĠBe aut
ae us
Ġline up
Ġdet achment
ĠNov el
Ġmar ching
get t
Ġ25 1
Ġconf using
Ġref res
ai res
Ġtri angular
ham pton
Ġvis uals
inc her
Ġhum our
Ġwater fall
Ġbest owed
Ġperiod ic
Ġexpl ores
let te
Ġcap abilities
Ġdr ives
ĠFl otilla
ves en
Ġmark er
Ġmark ers
ograph ics
Ġcapt ive
Ġterm inated
Ġdra ining
Ġaddition ally
sh ine
rew s
ĠChar ity
ĠAb rams
ĠTr unk
ĠRec ent
Ġtake off
ĠPort age
Ġ21 0
ĠBar ra
ĠWill ie
Ġelect oral
Ġdel ivers
Ġprop ose
Ġprop elled
Ġfore cast
Ġeast wards
Ġsol itary
ĠAss ault
Ġpopular ised
Ġobs ession
rent ial
ĠEl vis
sp oken
Ġmatch ing
Ġsoc cer
aff ected
Ġcat ches
Ġcat ching
Ġlight ly
Ġlim b
ĠGl ou
ĠGl enn
Ġadm ission
Ġnight cl
Ġvarious ly
field s
ĠCal c
gr as
Ġste amed
Ġval ued
Ġrock et
ĠMon ster
ett o
ĠAct s
Ġpeak s
Ġaud iobook
Ġaver ages
ĠSer geant
ĠBer keley
ĠIm age
ĠIm medi
Ġimpro per
Ġcoll ided
ĠPres byter
stit utes
Ġfund ra
ĠMo h
Ġnar rated
Ġ186 8
sel aig
Ġve il
Ġbur row
ĠSl ash
Ġpast oral
Ġmer it
Ġmer cy
ĠBut ton
onst ruction
Ġconstruct ing
Ġtreat ise
Ġpers pectives
ĠDep uty
Ġspecific ations
Ġreact ors
Ġ36 8
ĠCard ell
Ġdon ors
ĠNot ts
Ġtransport s
Ġhit ter
ĠStar r
Ġphys icist
Ġ184 6
Ġfood s
Ġdi agram
ĠRose y
quar tered
ĠMer cer
ĠNort heast
ĠJer zy
Ġamount ed
rat ina
Ġexam ines
Ġflow ing
ĠOtt awa
ĠInter ior
ĠHaw ks
Ġearth star
ĠPet it
Ġprem ise
ĠTre b
ĠTre vor
ĠScot ia
ĠDel ia
ĠMal ay
ĠMal one
Ġpersonal ities
Ġ42 0
Ġconver ting
ĠQueen stown
Ġsev enty
Ġ44 0
Ġ44 8
Ġbad ge
ĠGar rett
Ġintern ed
Ġ182 3
Ġ182 9
Ġprec urs
Ġconstit ute
Ġess ays
ĠRev ival
Ġshell ing
ĠConf lict
Ġroy alty
Ġassault ed
Ġassault ing
Ġmel odies
Ġdemonst rations
Ġsn akes
Ġaltern ating
Ġpoly gam
Ġpoly the
Ġ181 7
ĠGroup s
Ġplant ation
Ġox id
ĠDirect ors
Ġcontain ers
Ġadj o
Ġadj usted
lim bs
Ġmind s
Ġmind ed
Ġchief ly
ĠBh ai
bl ad
Ġdoct oral
Ġmic ro
Ġmic rol
ĠBon aparte
Ġspect ral
Ġtim eline
Ġec ological
Ġdefin ite
Ġacad emics
Ġod ds
Ġcriticism s
ĠHart ley
ĠRos emary
rak es
Ġmist ress
ĠAst ronom
Ġmort ality
add on
ĠCoast al
ĠRod dick
Ġbow led
opp osed
Ġcalc ulators
ĠFar r
Ġisol ation
Ġ177 0
ĠTim or
Ġdoor way
ĠAston ishing
Ġseg reg
Ġcho ices
Ġ176 1
ĠKat ie
Ġassemb le
Ġexplos ives
Ġfair y
Ġselect ive
Ġcard inals
Ġpup il
Ġhighlight ing
Ġvalley s
Ġvic ious
ĠTrib bles
Ġrhyth ms
Ġhall uc
ĠAsh ley
ĠLev i
Ġveget arian
Ġble eding
ĠPoint s
Ġconsum er
Ġancest ral
worth y
ĠKit ana
Ġoutf its
Ġoutf lank
Ġcrest s
Ġproport ions
ĠConc ert
Ġrhym es
ĠHun ters
Ġchronic le
Ġserial ized
ĠEvery thing
utz pah
Ġthin ly
Ġshut out
ĠRele ased
Ġsimultane ous
Ġmunicipal ities
ĠLy rically
Ġcheck ed
ĠRom antic
ĠSn elling
ĠSn apper
ĠRest oration
ĠEle ments
ĠVII I
Ġsubst rate
Ġcongreg ations
ti Ã¨me
Ġreprodu ctive
Ġtiss ues
ĠRen ault
Ġrender ing
ĠStal in
Ġsteep le
ĠPeters burg
ĠConfeder acy
Ġmyc el
Ġerr one
Ġerr atic
Ġdeliber ate
Ġnurs ing
ĠWeb ster
ĠExt inction
Ġcarri ag
Ġabandon ment
Ġasteroid s
Ġspr ings
Ġprosp ects
Ġdisagre ement
Ġovert urn
Ġsurge on
Ġrenov ation
Ġchest nut
Ġfasc ist
Ġmask ray
Ġtor rential
ĠDub ai
Ġexport ed
Ġpion eer
Ġjew ellery
Ġfeud al
Ġadvertis ement
ĠCirc uit
Ġsew er
Ġninet een
ĠRu wan
ĠColl abor
Ġrecommend ation
ĠShip building
ĠHeavy weight
Ġpp g
ĠPole hin
ĠLiter ature
Ġpron unciation
ĠSel en
Ġresid ues
ĠBosn ian
Ġicon ography
ĠHighland ers
ĠÄ Ģ
ĠÄ Ĳ
ĠBM W
ĠDra ke
Ġclimb ing
Ġstere otyp
ĠGuild ford
Ġhomosexual ity
ĠUk rain
ĠChand ler
Ġmonit ored
Ġurg ing
ĠScout ing
Ġdrift ing
Ġterr aces
Ġoct agonal
ĠEc ology
Ġconspir ators
ĠTat anka
ĠSit riuc
ĠTai yuan
ĠAx is
Ġdistort ions
Ġprovision al
ĠJohann es
ĠAmylostere aceae
Ġcorpor ate
ĠTrou ble
Ġthorough ly
Ġnas als
Ġphylogen y
Ġphylogen etic
Ġmarg inal
Ġmistaken ly
ĠDiamond s
ĠHoriz on
ĠANZAC s
Ġunrel iable
Ġoutp osts
ĠHospitall ers
ĠCul ver
ĠLars sen
Ġflaw ed
ĠCarn ival
Ġprosper ity
quir y
Ġfurn iture
Ġconif erous
ĠVH S
Ġupgr ade
Ġaggress ively
Ġridicul ous
Ġcov enant
ĠShan ghai
ĠChenn selaig
Conn or
Ġrevel ation
ĠHil o
ĠRP G
Ġvin yl
ĠIsa ac
ĠLegisl ature
Ġmillimet ers
Ġartif acts
ĠMegal iths
Ġambig uous
ĠWolver hampton
Ġwhis key
ĠUnf ortunately
ĠMcA llister
Ġordin ance
Ġjewel ry
Ġcoun sel
Ġfra ud
ĠRaph ael
ĠNir vana
ĠUtt ar
Ġparan ormal
Ġstoryt elling
ĠAber deen
ĠMum ia
ĠHost ile
ĠRiv iÃ¨re
ĠBeet ons
Ġconfisc ated
Ġpes os
Ġbeque athed
ĠLangu age
Ġintric ate
ĠEdg eworth
Ġdoctr ines
Ġingred ients
Ġinexper ienced
Ġgalericul ata
ĠTanz ania
ĠOgh ratina
Ġruth less
ĠVing tiÃ¨me
ĠVatic an
Ġarsen ic
Ġinterm itt
ĠRoch dale
Ġinadequ ate
ĠVÄĥ n
ubile e
Ġenerget ic
ĠSyb il
Ġfatig ue
ĠKalyanas und
Ġhomet own
ĠTade usz
Ġlub ric
ĠPoven mire
ĠKree ft
Ġresupp ly
Ġnightcl ub
ĠImmedi ately
ĠPolehin ke
1 6
1 9
3 2
D TV
G O
I D
P au
P aul
b ey
b ling
b odies
c ad
e veloped
f ilm
f leet
f rey
g ement
g ling
j e
k ward
k ick
l und
m m
m ett
o ise
p in
p en
p ro
r n
r ide
r ath
t ic
v acharya
w ith
w etter
y ster
Ø §
Ġ <
Ġ ^
Ġt ear
Ġa z
Ġa is
Ġthe ological
er un
er man
Ġs age
Ġs ax
Ġs ocks
ed ience
Ġo res
Ġo vation
Ġw akes
Ġw rought
Ġw ishing
Ġw agon
nd ers
at ars
or um
or ously
Ġc is
Ġc age
Ġc ents
Ġc ute
Ġc ogn
Ġc ites
en i
Ġf ri
Ġf ool
Ġf umble
is ely
Ġb er
Ġb ab
Ġb oring
Ġb idding
an an
Ġin und
Ġin cend
al u
al as
al ation
Ġp av
Ġp all
Ġp our
Ġp ond
Ġp enc
Ġp ests
Ġp umping
Ġp anthe
Ġto ile
Ġto pping
ro le
ro be
ic he
ic ant
Ġm as
Ġm ural
Ġh ay
Ġh ug
le af
le wine
ĠT ake
ĠT aj
ĠT eng
ĠT yn
ĠT iber
ĠT urt
ĠT uf
ĠT rain
ĠT jo
Ġre writ
ĠA CE
ĠS v
ĠS oy
ĠS ah
ĠS alt
ĠS aints
il ated
il ib
st ed
st ead
ĠC ros
ĠC ash
ĠC otton
ĠC rescent
el ic
el iness
om y
Ġl ign
Ġl ens
Ġl one
Ġl ots
Ġl ocks
Ġl ux
Ġe tymology
Ġn an
ad ors
ad ysÅĤaw
ĠM M
ĠM T
ĠM i
ĠM s
ĠM ade
ĠM ick
ĠM ek
ĠM Ã¼
ĠB ian
ĠB eller
Ġg ait
ol on
ol ine
iv ating
iv ism
im ir
ig ion
ig ma
ot ive
Ġas ym
ĠH ale
ĠH ert
Ġst ow
Ġst un
Ġst ib
Ġst ranger
ut ors
ĠP un
ĠP od
ĠP ong
ĠP iz
ĠP ett
ĠP igg
ĠP ayette
Ġbe aver
ĠR ac
ĠR ice
ĠR ama
ĠR onnie
th al
ĠD ore
ĠD ual
ĠD NL
un s
em aker
em ani
em nity
ĠF M
ĠF ra
ĠF ellow
ĠF ashion
ĠF Ã©l
ch i
ĠW end
ĠW itches
Ġcon ical
ra red
ĠG ur
ĠG aza
os er
os oph
ĠL if
ĠL ie
ĠL omb
ĠL ayne
ĠN R
ĠN ak
ĠN ost
ĠN ub
ĠN urs
Ġat om
and i
um ann
est on
est own
ĠJ ump
ĠJ ava
ag les
Ġhe x
Ġhe ct
Ġhe ights
00 0
ist ence
av Äģda
ĠE at
ĠE th
ĠE ASA
ĠO g
ĠO u
op a
op us
ies wetter
Ġv ib
Ġv ibr
ill an
ill usion
Ġde pr
pp ling
Ġr amps
Ġr ugged
ong a
all athus
ich i
Ġch asing
Ġch aos
ab allathus
ĠK ed
ĠK as
ĠK ath
ĠK ilm
ĠK ung
ĠK itsune
ĠK ramer
ĠK ieswetter
Ġpl enty
Ġâ ī
Ġk el
ack ing
red ict
ov o
ov anni
ĠSt am
Ġsp y
Ġsp ines
Ġle nd
Ġle isure
ĠCh ur
ĠCh ul
ĠCh ick
ĠCh uck
ĠCh utzpah
og ie
og uan
Ġun official
Ġun opposed
ĠV in
ĠV ed
ĠV est
ĠV iol
ĠV aballathus
Ġint ro
Ġint entional
Ġcl an
Ġcl ade
Ġcl ips
ran n
ass i
Ġab d
Ġro ost
Ġper cept
ĠAl aska
Ġsc utt
Ġdis ass
Ġdis illusion
iz ard
act ions
Ġdes k
ound ing
ĠY at
ĠY uk
te xt
ang es
Ġatt ested
Ġpre liminary
ĠUn cle
Ġall ot
ĠAn up
Ġfe eds
Ġkn ot
att i
Ġdec omp
ĠMar qu
ĠMar vin
Ġfl ock
ve z
Ġchar ming
orn s
olog ic
Ġreg ain
Ġreg ret
ĠSe lection
Ġpe as
ĠLe Ã³n
Ġco hes
Ġdef ines
Ġam ended
Ġind ec
Ġind ul
ĠJo anna
ĠSh and
ĠSh ould
ĠSh annon
Ġsupp ression
Ġsupp ressed
Ġsur real
Ġtra vers
Ġbl ast
Ġloc ate
ĠSc enic
row th
Ġ16 00
Ġexp ose
Ġexp osing
Ġback st
Ġinv ites
Ġdep leted
ern acle
ĠZ en
elf are
Ġconc urrently
Ġob ey
Ġmill ennium
ĠInd oor
au hor
ĠCon ception
yp es
yp se
Ġdown ward
Ġdisc red
Ġinst ability
Ġins ane
Ġprev ents
Ġcar ic
cept able
Ġgener ic
Ġgener ators
ĠWar riors
ĠCar ne
Ġprov oke
xt ap
Ġfam ine
ĠSp ur
ĠCol ton
Ġmod ifications
Ġbr ack
Ġgr as
Ġgr un
ĠComm anding
anc hes
ĠFor ge
ats u
Ġstr um
Ġsouth ward
ĠSouth west
ĠBe ij
Ġmar ine
Ġmar itime
Ġ... .
omet er
Ġshort ages
Ġjust ify
Ġsl ots
Ġgun fire
Ġvis or
Ġ30 5
Ġlist ings
Ġlist ened
Ġorgan izers
Ġexpl orers
Ġcap ability
Ġdr ill
ĠFl oren
Ġsent iments
Ġleg ally
ĠMan it
ograph ically
Ġlocal ization
ĠWe ird
Ġbas ically
Ġdeb ates
ĠTr igger
ĠTr udy
Ġwin ters
Ġexc ommun
Ġexc luding
Ġdifferent iated
Ġdifferent iate
ĠPer cy
ĠBar racks
ĠWill is
Ġcommun icate
Ġwest bound
Ġcr ush
Ġcr usade
rodu ction
Ġfore most
Ġcur ves
ĠCount ess
Ġspe eches
ebru gge
Ġ26 2
Ġappe aling
Ġsol uble
Ġcult ivated
ĠSim ultane
Ġ28 5
ĠPol ka
ĠEd win
Ġinflu x
Ġaff irm
ĠSu ccess
Ġequ ilib
Ġcomb ines
Ġestabl ishes
Ġread ings
Ġer ect
Äģ v
ĠNe ed
Ġ27 0
Ġlight ning
ĠHar ih
Ġbar b
Ġadm iration
Ġnight fall
Ġfun nel
ĠPal in
Ġenc ycl
Ġdecl ares
Ġball ot
Ġsett ling
Ġpri zes
ym es
Ġcert ifications
Ġfig ur
ĠSw ift
Ġmount ing
Ġrock ets
Ġcampaign ing
ett i
Ġcolle ague
Ġfav ourable
Ġconn ector
Ġ29 0
omm el
Ġ40 2
Ġcell o
Ġident ifying
ĠCo aches
unk er
Ġspecial ised
ĠRed s
Ġround about
Ġbi ographies
Ġdev out
Ġdev ote
oph on
Ġresear cher
ĠCr ass
ĠHero es
Ġprob es
Ġfort unes
ĠMac Far
Ġpract ically
Ġengine ered
Ġobject ed
Ġlearn t
ĠVal entine
ĠVal entin
ĠHel ena
ĠGr ims
ĠSuper ior
Ġpain ters
Ġunc overed
Ġreact ed
men y
ĠCarol ine
ĠPresident ial
leg iate
ĠMos que
Ġ183 5
Ġsyn onymous
Ġsyn onyms
Ġtransfer ring
Ġbreak fast
Ġwood ed
Ġwood lands
Ġgra vel
Ġgra zing
ĠScient ific
Ġap se
Ġchap els
Ġden ying
Ġliter al
ĠLa o
Ġ184 1
Ġoccup ying
ĠPeter borough
ĠAssoci ated
ĠHol iday
ĠHol mes
Ġsem ic
Ġbirth place
Ġcompl aining
Ġstaff ed
ĠSy rian
ĠPat ric
ĠBel ow
raw l
Ġcolon el
well er
Ġund ef
Ġund eveloped
Ġbroadcast ing
ĠMart el
Ġcontroll ers
Ġattract ions
Ġprem ier
Ġprem ature
Ġcommission ers
Ġbomb ed
Ġacqu aint
ĠTw itter
Ġdism ay
Ġsus cept
ĠMal aya
ĠVict ory
ĠSal a
ĠNor bert
ĠNor folk
Ġtransl ate
Ġinters ecting
ĠEr lewine
ĠCrit ic
Ġkick ing
ãĥ ¼
Ġcanc el
umber ing
Ġwing ed
ĠBol lywood
ĠGreen wich
Ġmodel ing
Ġpow der
Ġnation wide
ĠWild er
Ġassault s
Ġsn ap
Ġpoly urethane
iro th
Ġthr ust
roll ed
Ġ181 6
Ġheart ed
ĠEs c
Ġprogress ing
ãĤ Ĭ
Ġqual ification
Ġmurder er
Ġprint s
ĠMiddle ton
writ ers
Ġsac ram
Ġwinter ing
ĠBu ilt
Ġ64 0
Ġwa ited
Ġ46 0
ĠHistor ian
Ġmaster y
Ġge ometry
Ġroll ing
Ġfres co
Ġdismiss al
Ġmic roph
ĠCre ed
Ġproblem atic
Ġunp redict
ĠGi ovanni
Ġimag ine
ĠAp ollo
ĠBas il
ĠLuc ky
Ġresemb led
ĠDis ston
ĠNaz is
yt ic
Ġ179 5
ĠNH A
ez vous
iot ic
Ġmig rated
ĠProv idence
ĠCub an
ĠRod man
ĠRome o
Ġ71 6
Ġ164 8
ĠMot own
Ġbeach head
ĠSha oguan
Ġsumm ers
Ġplum s
Ġspons ors
Ġguard ian
Ġchapter house
ĠDev il
ĠBor is
ĠFrancisc an
Ġign or
Ġdescend ant
ĠMarc ell
ĠHon olulu
Ġastron aut
Ġastron omer
ĠRun ning
ĠPatt y
ĠPatt on
anth an
ĠMah ar
Ġ112 7
Ġgal leys
Ġselect ions
ĠCop per
Ġdisturb ing
ĠSav oy
Ġmonarch y
Ġfer ry
ĠCam el
ĠSa qq
Ġnob ility
Ġju xtap
á» ³
Ġdim ensions
ĠCab inet
agu a
ĠPul se
Ġpage ant
Ġcong ress
Ġoutf low
Ġ06 00
Ġbay on
ĠBass line
Ġacknow ledge
ĠConc ern
Ġcatch y
Ġcatch ment
Ġsight ed
Ġcens orship
Ġbat ters
ĠTig er
ĠRain fall
chang ing
Ġdens ely
Ġaw a
Ġaw kward
Ġtele commun
Ġskull s
Ġdevot ional
Ġtransition ed
Ġbed room
Ġconsc ientious
Ġparas ite
Ġautom atically
Ġcongreg ational
Ġty res
ĠBah rain
ĠVul cans
Ġpoll ution
Ġsad ness
ĠCas a
Ã± o
Ġfert ility
Ġwet lands
ĠLud wig
Ġconsp icuous
Ġrend ezvous
Ġchrom osomes
Ġ117 0
Ġreven ues
Ġprompt ly
bre aking
Ġsucceed s
Ġlamb s
ĠPubl ishers
ĠAut umn
Ġmask ed
ĠWhere as
ĠPriv y
Ġapprec iate
ĠCirc us
Ġca es
ĠCit iz
ĠRav ana
Ġcler k
Ġfru iting
Ġanch or
Ġdistrib ute
Ġdistrib utor
ĠMcM aster
Ġtort ure
Ġhind ered
Ġhym ns
ĠEconom ic
Ġrede veloped
Ġvault ed
ĠGrace hope
ĠJess ica
Ġendors ement
Ġinsurg ency
Ġceleb rities
ocal ypse
ĠZe ebrugge
Ġguarant eed
Ġcontradict ions
Ġgri p
ĠPs ych
ĠDal meny
Ġclar ified
Ġamid st
Ġlegit im
ĠGran ada
Ġspo iled
rov ite
ĠBour bon
ĠGri ffin
Ġcompan ions
Ġdisgu ise
ĠLead er
hous es
ĠSter ling
ĠJar vis
Ġterr ace
Ġsacrif ices
Ġlicens ing
ĠUygh ur
ĠPil ot
Ġbutt ons
Ġresur rect
Ġguerr illas
Ġmyel oid
Ġexhaust ion
ĠBry ant
ĠKan ata
Ġunexpected ly
Ġincred ibly
ĠMonten egr
Ġconfirm ation
ĠMaid s
Ġspar se
Ġherb iv
Ġannoy ing
ĠRook ie
ĠFle ming
Ġspear head
Ġmaneu vers
ĠClay ton
Ġmarg ins
Ġdimin ished
opol itan
ĠHoriz ons
enz ie
ĠCann es
ĠHern an
Ġrecapt ured
ĠCharacter istics
Ġcontrace ption
Ġdrown ed
ĠHospitall er
Ġmegal ithic
ĠRegard ing
Ġinacc ur
Ġgif ts
ĠOb ama
Ġaccord ance
ucle ated
Ġprogn osis
ĠHispan ic
Ġsteambo at
Ġillum inated
ĠPrepar ations
ĠKab oom
Ġcompat ible
Ġbuck et
Ġincorrect ly
Ġunanim ously
Ġsyll ables
ĠMadh vacharya
Ġexempl ified
ĠSamp ras
ĠKem al
Ġspont aneous
ĠVick ers
ĠGuang dong
ĠPruss ian
Ġcurren ts
ĠAgricult ural
Ġsel dom
opo ly
Ġexagger ated
ĠKling ons
ĠCham plain
Ġrag ale
Ġposthum ously
ĠExam ples
Ġstrand ed
ĠKinn ey
ĠâĻ ¯
Ġpursu ers
ĠDil ke
ĠFlem ish
ĠGros mont
ĠGrac ie
ĠContin uing
Ġbankrupt cy
ĠRodrig uez
Ġinherit ance
Ġlibret to
Ġcurric ulum
Ġfa Ã§
Ġmosa ic
ĠSpr ings
Ġvi aduct
Ġcalib re
Ġmicros cope
Ġvirtu oso
Ġprosecut or
ĠTsub ame
ĠVenezuel a
Ġsurn ame
ĠMent more
Ġhered itary
Ġnotor iously
Ġcompuls ory
Ġpresum ably
ĠSerg io
ĠAgust ÃŃn
ĠFrankf urt
Ġineff ective
ĠIbrah im
ĠRena issance
ĠDoo ley
ĠWÅĤ adysÅĤaw
Ġautonom ous
Ġcylind rical
Ġtranse pt
ĠPtole my
Ġtann ery
ĠTourn ament
ĠHamb urg
ĠFland ers
ĠInform er
Ġunac ceptable
izar re
Ġtrunc ated
ĠMarse ille
ĠGuerr ero
ĠGuatem ala
ĠMacD onald
Ġcrosso ver
ĠCunning ham
ĠFford d
ĠInver ness
Ġabbre v
ĠSeph iroth
Ġrestruct uring
ĠTreb inje
Ġadjo ining
ĠUkrain ian
ĠKalyanasund ara
Ġincend iary
ĠTuf aro
ĠPigg ott
ĠFÃ©l ix
ĠNost rovite
ĠCarne gie
ĠBeij ing
ĠMacFar lane
ĠGrims by
ĠSaqq ara
2 5
A fric
B D
D T
D s
H F
H L
M E
N f
P C
P ro
S C
S M
a um
a ise
a vers
b ane
c ular
c reen
c asters
c roft
d aur
d ych
e i
e ut
e em
e ers
e als
e osaurus
f ere
f te
g au
g ae
g uez
i ative
j m
k ovsky
l ah
l Ã©
l osed
m od
m ast
m oor
n et
n ected
n iest
o field
p y
p ad
p ers
p end
p iÄĩ
r ary
r ust
r als
r ays
r ators
t es
u il
u ana
v ings
w ll
y at
» æ
Ã ®
Ä ĳ
Ä Ĺ
É ª
Ï Į
Ð ¸
Ð º
× Ķ
Ù Ĩ
Ġ ions
Ġt ens
Ġt rop
Ġt ilt
Ġt rem
Ġt ertiary
he ro
Ġa fric
Ġa ston
Ġa esthetic
in ac
in th
in ence
er i
Ġs ar
ed e
ed ia
Ġo t
Ġo ars
Ġw arts
Ġw oo
Ġw orms
Ġw elfare
at os
at Ã¡n
or ge
it as
it ol
it ory
it ations
it ism
Ġc ob
Ġc af
Ġc rab
Ġc itation
en hagen
Ġf og
Ġf ile
Ġf oli
ar in
ar atus
ar agua
Ġb un
Ġb og
Ġb ru
Ġb ure
Ġb ald
Ġb ounc
Ġin act
al er
al ers
al ore
al gam
Ġp ore
Ġp ard
Ġp uck
Ġp ector
Ġp uff
Ġp oured
ic le
Ġm es
Ġm ice
Ġm ined
Ġm ash
Ġm oor
Ġd ys
Ġd ances
Ġd ots
Ġh ated
Ġh aven
Ġh inted
ĠT as
ĠT ab
ĠT og
ĠT ran
ĠT uring
ĠT ric
ĠT act
ĠT akes
ĠT ata
ĠT rot
Ġre iss
Ġre lying
Ġre union
ĠA ther
ĠA ki
ĠA ware
ĠS z
ĠS es
ĠS ou
ĠS ig
ĠS ave
ĠS ire
ĠS pl
ĠS tern
ĠS yc
ĠS aff
ĠS idd
ĠS ites
ĠS osa
ent iful
il ia
st ad
ĠC il
ĠC ame
ĠC age
ĠC aster
ĠC ogan
ĠC inqu
ĠC umm
el i
el ae
Ġl es
Ġl ent
Ġl ust
Ġl iver
Ġl ae
Ġl ining
Ġl uck
Ġl inem
Ġl anthan
am ia
Ġe ternal
Ġn ect
ad u
ĠM ig
ĠM ered
ĠM ouse
ĠM ech
ĠM ask
ĠM udd
ĠM iy
ec o
ĠB ub
ĠB ury
ĠB alk
ĠB eng
ĠB urt
ĠB ishops
ĠB anner
ĠI o
ĠI ch
ĠI gn
ĠI vor
Ġg el
Ġg ut
Ġg ast
Ġg end
et ing
et erm
ol t
ol ith
ol era
ol atum
id ian
id ating
id ays
iv ities
im o
im ated
Ġfor ts
ig y
ig en
ot us
ter ranean
Ġas hes
ĠH es
ĠH et
ĠH ut
ĠH our
ĠH ight
ĠH ann
ĠH oms
ĠH udders
us ir
Ġst ub
Ġst ole
Ġst raw
Ġst ipe
ut ory
ith m
ay as
ĠP os
ĠP ack
ĠP ia
ĠP ru
ĠP FA
ĠP ML
ĠP asha
ĠR N
ĠR id
ĠR ever
ĠR az
ĠR ole
ĠR amb
ĠR ule
ĠR osen
ĠR ML
ĠR ules
ĠR OM
ĠR iker
ĠD ol
ĠD and
ĠD ame
ĠD ors
ĠD und
un ami
em orial
ĠF ult
ĠF arn
ĠF irth
ĠF iji
Ġwh olly
ul ent
ul ine
ĠW ord
ĠW ould
ĠW ilm
ĠW ick
ĠW ives
ĠW inc
ĠW orship
ĠG ust
ĠG ates
ĠG any
ĠG ys
ĠG entle
ĠG areth
ĠL A
ĠL il
ĠL ac
ĠL ib
ĠL ook
ĠL Ã©
ĠL ogan
ĠN T
ĠN em
ĠN one
ĠN ico
ĠN AT
ĠN WA
rom anches
est re
est ones
ĠJ ig
ĠJ ian
ĠJ ell
ĠJ ake
ĠJ unction
Ġhe arts
ĠE isen
ĠO K
Ġpro w
Ġv iv
Ġv ain
Ġv iable
Ġv aude
Ġde leted
Ġr idd
all ah
all ax
Ġch ant
Ġch ast
Ġch ased
Ġor phan
ab we
ab lish
ant on
oc es
oc ence
oc arp
ber n
ĠK ud
ĠK ass
ĠK ens
ĠK ail
ĠK ash
ĠK edar
ĠK ajal
ĠK oval
ĠK á»³
Ġpl ausible
Ġpl entiful
Ġare olatum
Ġsh adow
Ġsh attered
Ġk its
ĠâĢ ĳ
ĠU F
ĠU HF
ĠSt ela
ast ically
Ġsp ous
Ġsp here
ian us
Ġu ter
ĠCh ong
ĠCh ak
og ene
Ġun he
Ġun le
Ġun lock
ĠV ale
ĠV ai
ĠV idy
Ġcomp elled
ide a
Ġcont ention
Ġint ending
Ġar ched
ub ation
ff en
ff man
Ġher ding
ater al
ie ff
ork s
ass ic
ass ion
end ium
Ġres ent
Ġad vers
Ġrec all
ĠHe at
ĠHe ine
ĠHe br
ĠTh urs
du p
ult ure
ough ts
ĠAl ma
ĠAl varez
Ġsc out
Ġsc rut
Ġdis like
iz able
are l
are tt
Ġj ets
Ġj ersey
Ġover c
Ġover pass
ib u
ib ars
ĠY a
ĠY uc
ke ys
Ġatt achment
Ġout c
man ia
Ġfin ishes
Ġcomm ended
ĠUn as
Ġwe aker
oy ne
Ġcent red
ĠAn con
ĠAn ekÄģntavÄģda
ath ing
ey er
Ġthem atic
Ġsec rets
Ġrem embers
Ġcons ume
Ġtr ash
ĠMar a
ĠMar gin
ĠEn ri
Ġrel ocation
Ġme als
ĠAr chie
ĠAr ctic
ĠAr romanches
ob allus
Ġne o
iew icz
Ġ00 00
Ġver b
Ġend ured
Ġend urance
Ġpr ide
Ġpr one
Ġass umes
ĠSe g
Ġsub order
Ġspec ulates
Ġqu e
ener y
Ġinter face
Ġinter rog
Ġsome how
Ġco il
Ġdef ens
Ġac ronym
Ġind ex
Ġind emnity
ĠRe ese
ĠSh ore
ĠSh ab
ĠSh ane
Ġsy ph
Ġent rep
Ġtra iling
Ġbl ur
Ġpres cribed
ĠSc rant
iet ta
Ġtrans f
Ġtrans cribed
Ġback s
Ġsing ular
Ġem itted
Ġinv alid
ĠZ imb
ĠZ oe
ĠZ weig
Ġmon olog
Ġmon astic
Ġmin ig
Ġshow c
Ġconc urrent
az iland
erm o
Ġcontin ually
Ġsign aling
ĠInd o
Ġpol ished
Ġpol ls
ĠWh atever
ĠBr ing
Ġbel ly
Ġdisc us
ĠMay o
Ġinf est
Ġimp ressions
ink s
Ġins urance
ĠBl an
ĠBl ock
Ġresp ects
ull o
Ġoper atic
Ġprev ention
ism o
ĠCar o
Ġwar ns
Ġconst raints
ĠAugust an
Ġocc ult
ĠSp in
ĠSp encer
ĠCl own
Ġsupport ive
ĠCol umn
Ġmod ification
Ġhead waters
raph s
Ġbr ig
ĠAd or
ĠAd apt
ĠDe acon
ĠDe Paul
Ġgu ess
Ġgu idelines
ĠMe V
ĠMe asure
ble m
Ġhel m
Ġcare ful
Ġrest ed
ĠBe e
ĠBe aver
Ġline age
Ġline back
Ġclass ify
Ġprot otypes
Ġbuild ers
Ġport al
Ġport able
Ġconf essed
Ġref use
Ġsl aughter
ĠMc Le
Ġold s
ĠGe ological
Ġlist ener
Ġtop s
ĠPh ot
ĠPr ayer
ĠPr piÄĩ
Ġdest ined
ung ie
sh ires
ĠComp ared
Ġfew est
ĠWe iss
ĠAb ram
ĠAb usir
Ġbas ins
Ġmid way
Ġmid day
ĠTr im
ĠFrench men
Ġarch aic
ĠBar ron
ĠBar oque
Ġmag ician
Ġdel uxe
ĠAm ster
Ġfre ight
Ġfre ighter
Ġstat ic
isc uous
arm el
Ġcult s
Ġcult ivation
hem istry
Ġpat ches
ĠCent iped
Ġcomb inations
Ġfact o
ĠEv an
ĠEv ents
sequ ent
Ġsoc ially
aun t
Ġer ad
Ġer oded
ĠNe ither
ĠNe osc
ĠNe gras
Ġground ed
Ġcat al
Ġcat ast
Ġcat hed
Ġ27 1
Ġgl uc
Ġgl ider
aren ts
Ġbar ge
Ġbar ges
ĠGl ory
Ġadm it
ĠEx odus
Ġprim aries
ĠRoad block
ico e
Ġred oub
Ġdiscover ing
reg n
Ġsett ings
ĠCro ix
Ġpit ches
gr at
Ġste ering
Ġcert ification
Ġpred ation
ĠSw aziland
Ġ31 0
ĠMon c
Ġgoal keeper
umb ling
Ġborn e
Ġbroad side
ĠBer man
ĠBer dych
ĠMad agas
Ġsepar ates
Ġcreat ors
Ġ35 2
Ġmot ives
Ġinform s
ĠMo e
ĠMo ines
Ġren ted
ĠBo eing
Ġflood plain
Ġsequ els
ĠJew ell
Ġcost ly
ĠÃ ĺ
Ġemploy s
Ġbur gh
Ġconduct or
Ġcrew men
bor g
Ġfree ze
Ġfree zing
Ġplann ers
Ġnomin ate
Ġhon ored
Ġtreat ing
Ġtreat ies
Ġdiss atisf
Ġpers ecution
ĠHel p
ĠAg nes
ĠAg assi
ĠApp eals
ĠSuper mar
Ġunc onsc
Ġpen al
ĠMos c
Ġsyn c
ĠMy th
ĠGold berg
Ġdon ation
ĠCong reg
urg a
urg ical
ĠStar b
Ġtest imon
ĠPo eh
Ġtow ed
Ġforest ry
aut la
ĠAngel o
Ġdi ocese
ĠTer ri
ĠInf luence
ĠStud ent
Ġjourn als
ĠJe ep
Ġcompl ications
Ġsil ence
ĠRes olution
ĠRh ymes
ĠWood y
Ġund irected
ĠSov al
ĠNic aragua
Ġkeep ers
ĠBrad ley
Ġunderst ory
Ġamb itions
Ġamb ush
Ġlo ops
Ġdram at
Ġproduct ive
Ġkil ograms
Ġconsider ation
anas ieff
ĠTw elve
Ġthick er
Ġbox er
Ġdig est
Ġ47 0
Ġdom est
itch f
Ġbatter ed
ĠStorm s
Ġlif esp
ĠIll ustrated
ĠInn ocent
ĠRam an
ĠLo is
Ġtax onomy
Ġdetail ing
ĠSomal iland
Ġinteract ed
ĠSir ius
Ġ182 6
Ġ182 8
Ġprec inct
Ġprec isely
Ġcasual ty
Ġang les
ãģ Ħ
Ġcontrast s
Ġdu pl
ĠCat al
ĠPre fect
ĠSpec ific
Ġsoundtrack s
Ġboard ing
ĠMat ilda
Ġ181 1
Ġ181 3
Ġcombat ants
Ġnortheast ward
Ġple a
Ġmis le
ĠChe ese
Ġ180 8
ĠCommun ists
Ġnest lings
Ġspl its
Ġspl ash
Ġspl icing
ĠColon ial
ĠProt oceratops
Ġbott le
lam m
Ġhors emen
ĠMax well
Ġcontain er
Ġneut rons
Ġfeder ation
ĠBu ild
ĠArm ored
Ġwa ist
Ġyour self
Ġemphas ised
Ġhom age
ĠFA B
ĠVen ice
Ġdepth s
Ġattend ees
ĠPalest ro
ĠMore over
ĠChap at
ĠGre ens
Ġspect acular
Ġcust oms
ĠJur assic
ĠKir yat
Ġstraight forward
ĠId yll
Ġalter ations
ĠHart ford
ĠBas el
ĠJeff erson
uli ar
Ġaccompan iment
ĠWat ers
Ġreform ed
hm in
ĠMu ang
ĠNaz areth
ĠUSA CE
ĠCa uc
Ġla uded
ĠHan over
ĠRel ief
ĠRel igion
ĠRod rÃŃ
ĠDaniel s
Ġbul b
Ġcalc ulations
ĠFar ley
Ġflag s
Ġ164 3
Ġ164 6
ĠMot oko
Ġfresh man
Ġfresh men
ĠBern stein
ĠBaby face
Ġstret ching
ĠDream ers
ĠMarl ene
Ġ177 6
Ġpal m
ĠBond s
Ġemp ires
ĠYe ah
Ġpack aged
ĠMah Äģv
Ġassemb lies
Ã©t at
rell a
Ġcard iac
ĠCop enhagen
Ġlov ing
ĠMul daur
Ġhydro x
rin os
ĠMid lands
Ġ69 0
ĠPlunk ett
Ġmotor ists
Ġcry pt
Ġexception ally
Ġur anium
Ġmunic ipality
Ġnob ody
Ġgall eries
Ġtal ents
Ġbal anced
ĠNap les
point s
Ġmart yr
Ġconsum ing
ĠTerrit orial
ĠMand ers
Ġproport ional
Ġimpl ications
Ġconsult ed
Ġconvin ces
ĠGib bons
Ġmusc ular
ĠSem in
Ġansw ered
rif ied
Ġwilling ness
ĠRain bow
Ġ161 6
Ġblow s
Ġ162 5
iy ah
Ġliber ation
ĠNar vesen
Ġbiographer s
Ġobst acle
Ġphr ases
Ġdiplom at
Ġkingdom s
EC T
ĠBudd h
ĠBudd ha
Ġmarry ing
Ġremember ing
Ġconsol idation
Ġ123 4
Ġ165 0
ĠRen Ã©
ĠNob ody
ĠHay es
Ġcomed ies
Ġintellect uals
Ġpoison ous
ĠHans en
Ġexplo it
Ġexplo ited
ĠPoly nes
ĠLet ters
ĠKam al
Ġcarri ers
Ġsucceed ing
Ġuniform s
ĠAgain st
ĠMichel in
Ġprosp ective
ĠMcD onald
Ġsuperv ising
Ġrenov ations
ĠFarm ington
Ġscar ce
Ġinfer red
Ġmir r
ĠKnow les
Ġaggreg ator
Ġtor so
Ġbom ber
ĠEp is
Ġdisband ment
grad ation
ĠAf anasieff
Ġsoci ology
ĠNag ar
ĠFeel ing
Ġho ly
ĠDod gers
ĠKau f
ĠKau ffman
Ġaccum ulate
Ġphenomen a
Ġreop en
ĠAle c
Ġlaugh ing
Ġgor illas
ĠFut a
Ġpec uliar
Ġsimpl icity
Ġexcell ence
ĠBoss y
rav iolet
Ä« ra
Ġboot s
Ġconce aled
Ã©d Ã©
Ġconvey ed
Ġdenomin ations
Ġsalv ation
Ġwrest led
ĠOrd nance
Ġintr ud
ĠIns ular
Ġcontinu ity
ĠColomb ian
Ġexecut ing
Ġreconc iliation
Ġenroll ment
Ġremind s
Ġurg ent
Ġvig orously
ĠCow ard
iph any
Ġpetition ed
Ġnic he
ĠPand u
ĠRand olph
Ġrepet ition
Ġcounteratt acks
Ġemotion ally
fl ix
Ġgam ma
ĠRut gers
ĠVo ices
Ġconfron ts
ĠBerk shire
Ġanthrop omorph
mo il
Ġcock pit
ĠBach chan
Ġassum ption
Ġswit ched
ĠSchm oke
ĠSchm idt
Ġcyl inder
ĠCall isto
ĠMut inus
ĠRound about
ĠOk lah
Ġwheel chair
ĠAnim als
auc r
Ġrecapt ure
Ġphilosopher s
Ġhemmem as
ĠNam eless
occ up
Ġabnormal ities
Ġinacc essible
ĠCot y
Ġlung s
Ġgif ted
ĠKras inski
Ġsynd rome
ĠTempl ar
Ġecosystem s
Ġoptim ism
Ġrework ed
ĠCandid ature
ĠMunic ipal
ĠMunic ipality
ĠIber ian
ĠIber ia
ĠPend ragon
Ġreluct ant
Ġdissent ing
ĠBabyl onian
vig atum
ĠWor cestershire
ĠGem ma
ĠVij ay
Ġincl ined
Ġfores h
ĠCoss acks
Ġwhit ish
ĠNet flix
Ġconsec rated
ĠCrist ina
Ġorient ation
Ġflex ible
Ġpor ch
ĠBri enne
ĠBend is
ĠQin zong
Ġhast ily
ĠEff ects
ĠVinc ent
ĠAnat olia
ĠFlag ler
ĠIncre asing
Ġdreadn oughts
Ġslee ves
ĠHors es
ĠDare us
ĠDup ri
ĠWins low
Ġslab s
ĠAnders ons
ĠAntar ctic
Ġhab its
ĠRous s
ĠRuf us
ĠChay kovsky
Ġsubpl ot
Ġeleg ant
ĠGryllotal pa
Ġhilar ious
ĠCounter feit
Ġrer outed
ĠChas uble
ĠSevent eenth
Ġepiscop al
ĠZomb ie
Ġtypewrit er
Ġconvinc ing
Ġmitochond rial
Ġsab ot
ĠPars ons
ĠGC SE
Ġcontam inated
Ġabdom en
Ġdisemb ark
Ġparatro opers
ĠMoroc co
Ġdismant led
ĠRestaur ant
Ġhymen ium
ĠPengu ins
ĠSpisevognselskap et
ĠMAC V
Ġconced ed
ĠGaz ette
áĥ¡ áĥ
Ġpilgrim age
ĠConstruct ors
ĠCasual ties
ĠPropag anda
Ġlibr aries
ĠHabit at
ĠPied ras
Ġtrigg ered
ĠZyg oballus
Ġcarriag eway
ĠCollabor ation
Ġais les
Ġcis tern
role um
ĠManit oba
Ġequilib rium
ĠCrass weller
Ġsuscept ible
ĠCopper field
Afric aine
fte es
wll t
Ġfoli age
Ġbure aucr
Ġpector al
ĠSaff ir
ĠCaster man
ĠCinqu emani
ĠCumm ings
Ġlae vigatum
Ġnect ar
ĠMered ith
ĠHudders field
ĠPia zzi
ĠFult on
ĠGany mede
ĠGys wllt
ĠNAT O
ĠJell icoe
ĠAncon a
Ġentrep rene
ĠScrant on
ĠZimb abwe
ĠAmster dam
ĠCentiped e
ĠNeosc apteriscus
ĠMadagas car
ĠPoeh ler
ĠIdyll wild
ĠRodrÃŃ guez
ĠMahÄģv Ä«ra
ĠOklah oma
2 6
4 7
7 6
D ay
E F
F X
M CA
N T
Q HA
R PA
S O
T P
X X
b es
b rough
c io
d ress
d oor
f o
f ly
f ried
f ume
g i
g ame
h ong
h ange
i w
i ography
i well
j as
j ud
j Ã¡n
k ang
l ave
n ia
n agar
o z
o itation
o zo
p ius
r im
r atory
r usted
s l
t ical
t hel
u er
u ably
u aries
v ie
v ann
w ic
w ill
x imate
y led
ª ãĤ
Ã ¯
Å Ľ
Ø ¯
Ġ umb
İ le
Ġt art
Ġt ren
Ġt empt
Ġt oned
Ġt ipped
Ġa ro
Ġa ra
Ġa kin
in z
in ite
in ities
Ġthe rop
er oy
Ġs odium
Ġs arc
Ġo v
Ġw ording
nd le
at ar
at ial
Ġ. .
or ations
Ġc ere
Ġc oc
Ġc ared
Ġc ope
Ġc ries
Ġf ence
Ġf ake
Ġf ron
Ġf ring
Ġf ades
Ġf ancy
Ġf ooth
Ġf umbled
Ġf riction
is ine
es el
ar h
ar u
ar ms
Ġb a
Ġb iting
Ġb ritt
an ist
al ment
al ia
al uation
ing don
Ġp ip
Ġp awn
Ġp anned
Ġp ipe
Ġp agod
Ġm att
Ġm ott
Ġm aker
Ġd orm
Ġd uck
Ġh orm
Ġh ood
ou w
ou fl
ĠT i
ĠT ou
ĠT ah
ĠT uls
ĠT arant
Ġre e
Ġre ne
ĠA e
ĠA th
ĠA very
ĠA QHA
ĠS ear
ĠS uc
ĠS ully
ĠS ogns
il ic
il ion
il ies
st ars
st hetic
ĠC ly
ĠC ut
ĠC os
ĠC ust
ĠC ald
ĠC ele
el ids
om ial
om atic
Ġl ymph
Ġl ucky
am ics
Ġe asterly
Ġn omen
ad in
ad al
ac ious
ac ios
ĠM t
ĠM ast
ĠM ater
ĠM ang
ĠM ane
ĠM Ã©t
ĠM ecca
ĠM fume
ur able
ĠB ak
ĠB ree
ĠB ren
ĠB ody
ĠB rew
ĠB isc
ĠB rest
ĠB anning
ĠB Ã©d
ĠB iblical
ĠB SU
ĠB achelor
ĠI one
ĠI ck
ĠI ps
ĠI RA
ĠI roqu
Ġg um
Ġg ru
Ġg rief
ol er
id ar
id able
id io
id uous
im ier
Ġfor bs
ig i
ig all
ig ua
ĠH app
ĠH ots
ĠH ym
ĠH ands
ĠH usband
ĠH itch
ĠH uff
ĠH MC
us k
us ement
Ġst ad
Ġst ew
Ġst uck
ut a
ut en
ut ational
ĠP is
ĠP ill
ĠP ant
ĠP ath
ĠP orn
ĠP ract
ĠP ipe
ĠP aste
ĠP encer
Ġbe er
Ġbe et
Ġbe fri
ĠR im
ĠR ot
ĠR over
ĠR ied
ĠR ash
ĠR ising
ĠR aven
th rop
ĠD ed
ĠD ion
ĠD ul
ĠD ell
ĠD ix
ĠD iet
ĠD illon
ĠF it
ĠF est
ĠF rey
ĠF anny
ĠF incher
Ġal igned
Ġal umn
ch and
ch ase
ĠW ily
Ġcon formation
Ġcon gestion
ĠG ud
ĠG ast
ĠG ins
ĠG ives
ĠG arn
ĠG ilda
os ome
os ures
ĠL ay
ĠL ia
ĠL ens
ĠL az
ĠL anka
ĠN y
ĠN ed
ĠN ass
ĠN ors
ĠN ights
ct ory
rom atin
and ro
and ers
Ġan om
Ġan ekÄģn
um er
est even
ĠJ ing
ĠJ orge
ag ements
ag han
ag orda
Ġhe ars
ist em
ain en
od ic
av is
ri als
ĠO sh
ĠO range
op ic
op ath
op lan
Ġpro stitute
if ier
Ġv ivid
Ġv iolet
ill tern
pp en
Ġr p
Ġr ick
Ġr anc
Ġse izing
ew he
Ġex ert
Ġex otic
ess e
ĠK l
ĠK ill
ĠK rit
ĠK esteven
Ġpl ated
Ġpl umes
qu er
Ġsh ocking
ĠSt re
ĠSt ru
ĠSt ructure
Ġsp un
Ġsp ars
Ġsp anned
Ġsp ikes
Ġsp lend
Ġle ap
ell es
ish a
ĠCh un
ĠCh aos
Ġun e
Ġun ic
Ġun real
ĠV it
ĠV ish
ĠV ance
Ġinc ense
ure n
Ġcont ex
Ġint end
Ġint ake
Ġint ends
Ġint oler
ial s
Ġar ising
Ġar terial
Ġ20 5
Ġ20 8
Ġcl ick
Ġcl ash
Ġcl ient
Ġcl utch
Ġcl ients
ign ant
ran ged
Ġres isted
Ġres iding
Ġres onance
Ġab l
Ġad he
ry a
ry l
Ġrec laim
Ġrec lass
ĠHe ather
Ġro oted
Ġro ds
ĠTh reat
ough by
ĠAl m
Ġsc enery
pl er
pl an
ition ers
Ġdis organ
Ġdis inte
Ġapp aratus
ach an
Ġman ning
Ġag on
Ġyear ly
Ġover d
Ġover head
ib al
ib les
Ġen anti
Ġoff season
Ġim aging
ĠY s
ĠY ard
ĠY MCA
ke ep
Ġout let
Ġup right
ens ed
ens ation
man ent
Ġev id
Ġfin ances
Ġcomm od
Ġcomm ittees
Ġshe er
Ġte a
Ġmore l
Ġmore ls
ose lect
tern ish
Ġwork shop
ath am
Ġpo ols
ey town
Ġfe ather
Ġrem ade
Ġrem ission
Ġrem edy
Ġear nest
aw i
Ġkn ocking
ĠAs cle
att led
Ġdec iduous
ick i
ick y
Ġtr am
Ġtr im
ĠMar riage
ĠMar quis
Ġunder cover
Ġunder parts
Ġme al
ĠCom ment
ĠAr ish
Ġne ural
Ġfl ux
Ġfl uct
Ġfl otilla
hn a
Ġchar ities
orn is
Ġreg urg
Ġreg ulatory
Ġreg gae
Ġform idable
Ġsub du
Ġsub mission
Ġacc ession
Ġqu otation
Ġqu artet
Ġinter vals
ĠLe af
ĠLe gal
Ġco ached
ĠAt en
Ġam pl
Ġam algam
ĠRe uter
lect ric
ĠSh ir
ĠSh rop
ĠSh ula
ĠSh arma
ĠSh adows
Ġsupp ose
Ġent ries
Ġent rances
ten ham
Ġpres ided
Ġpres erving
iet al
pr ises
Ġadd ict
ert y
Ġinv ade
Ġinv oked
Ġdep osed
ĠZ el
ĠZ ong
ĠZ artan
Ġmon sters
Ġmon opoly
Ġ11 30
ĠAfter wards
yl er
yl us
Ġmin us
Ġmin istry
ĠShe ikh
Ġorigin als
az aki
Ġmill imetres
erm aine
ĠIs id
yp us
Ġbro ods
roup e
ĠMay s
ĠMay er
Ġinst antly
Ġinf rared
Ġinf lamm
Ġimp ending
Ġoper ators
Ã© gÃ©
Ġprev ailing
Ġgener ous
ĠWar ning
ism atic
ĠCar rington
ĠPl ans
Ġconst rained
Ġph ones
ĠSp art
ĠCl amp
ĠCl iff
Ġsix teenth
Ġhead quartered
Ġgr ind
ĠAd el
ĠHer od
ged y
ĠQ x
ĠPro b
ĠNorth umbria
Ġ14 6
Ġstr ive
ĠJan elle
Ġpartic le
Ġcare g
Ġpublic ized
Ġrest s
ae a
Ġprot Ã©gÃ©
Ġnow here
Ġ25 3
ĠCan on
Ġconf eder
Ġserv ant
Ġcamp ed
Ġref in
Ġref ined
Ġstar board
Ġsl am
ĠMus h
Ġtri um
Ġtri oxide
ĠGe ffen
Ġpar allax
Ġappro ximate
Ġhum idity
orp oration
Ġexpl ode
ĠBy way
Ġhand b
Ġhand ic
Ġmed ioc
oint ed
Ġopp ose
Ġmake up
ĠPr Ã©
Ġeng agements
Ġant isem
Ġdem ocratic
ĠMan a
ĠBro om
Ġrepl ica
Ġstand out
Ġdest iny
ĠNo el
ĠAb ingdon
ĠTr ach
ĠX ion
Ġreal ise
Ġtown ship
Ġ21 5
Ġtw ist
ĠWill oughby
Ġfield fare
itar ies
Ġdel aying
Ġprop het
ĠAm iga
Ġcr ude
enc l
enc ia
rodu ced
Ġfore limbs
ĠRoman o
ĠRoman esque
Ġconv ince
isc overed
ĠSim mons
ĠSte eltown
Ġpat ent
Ġaff inity
ĠSu v
ĠEl aine
Ġequ ated
ĠAfric ans
Ã¡ s
ĠEv aluation
Äģ rya
Ġhow itz
Ġcat echism
Ġdiv inities
ĠBlack stone
ĠReg ular
Ġcast e
Ġgl ory
Ġintrodu ctory
ĠAir ways
Ġfun nels
Ġfun niest
ĠPal acios
ĠRich ter
Ġball ads
Ġwid ened
rest rials
Ġsw ords
ĠCro we
ĠCro ats
ĠAng els
ym oon
gr ims
Ġste al
ĠHam mond
ĠMon roe
Ġsqu at
Ġsuper b
ĠMor hange
Ġcomment aries
Ġident ities
Ġanim ations
Ġrecogn izes
ĠBer io
Ġcor rel
Ġinsp ire
ĠPart s
Ġarg uably
ĠMed ic
Ġir resp
Ġbi ased
Ġmiss iles
Ġmot ivation
Ġz o
Ġlaun ches
Ġwall ed
oph agus
ĠKh mer
Ġfund ament
Ġren umbering
ĠBo ogie
ĠEm il
ĠEm manuel
Ġcost ing
ĠÃ İle
Ġve in
Ġemploy er
Ġfort ification
ĠMac c
ĠSl ov
ĠSl oan
uck et
ĠBay ern
ĠMcC ay
ĠMcC oy
ĠBut ler
ĠSan ford
Ġmult ip
Ġesc aping
gl omer
Ġmust er
ĠApp ear
ĠGr ad
Ġthreat en
ĠMont agne
Ġunc ont
AF TA
ĠOs ato
Ġpur ported
for cing
ĠGold man
Ġtru ce
Ġchange up
ĠHall iwell
Ġhard ware
Ġey ed
Ġey ew
Ġbreak out
Ġbreak through
Ġwood s
Ġgrad ual
Ġgrad uation
Ġmem or
Ġcru c
ĠPo ems
Ġden oting
Ġeconom ically
Ġpot ent
Ġassist ing
den berry
ĠSch afer
Ġblock ing
zz le
Ġimm une
ĠMer cy
ĠMet eor
Ġhapp iness
ĠJer ome
ĠJer emia
com ed
Ġche er
Ġche aper
raw ling
Ġconclud e
Ġund oub
Ġpair ing
ĠMart y
Ġscript ed
ĠPet ra
Ġamb ient
Ġaccess ories
ĠTre asure
Ġbound s
Ġbound ed
ĠHo Ê»
Ġnucle olus
Ġ300 0
ĠMal col
ĠSol itude
Ġmor ality
ĠTenn is
ĠCour se
Ġphot ographer
ĠSal on
Ġpath ways
ĠCross ing
ĠGo ose
ĠSix teen
orpor ated
rid ged
rid ges
ĠDam ietta
Ġnecess itated
ev il
Ġtax onomic
Ġrequest ing
ĠCrit icism
Ġspir al
Ġspir its
Ġkick er
Ġ182 2
Ġ182 7
ãĥ ³
Ġlands c
Ġmagn ificent
Ġinstit ute
Ġdrum ming
Ġpun ish
acher s
ĠDo es
ĠDo ct
Ġhair s
ĠCharl ton
Ġmel ting
ĠAv on
Ġdemonst rates
Ġcam el
Ġcam oufl
ĠMat agorda
Ġ181 0
Ġ181 2
ĠAnn ie
ĠChe ers
ĠDou b
Ġ180 3
ĠReview ing
Ġgrass lands
ĠCap el
Ã¨ s
Ã¨ re
ĠWeek end
Ġhun ger
ĠLar gs
Ġunivers ally
ĠMass ive
Ġneut rinos
Ġmeasure ment
ij a
Ġfolk t
Ġfunction ing
Ġrepe ats
Ġdoub les
Ġemphas izes
Ġrom antically
ĠBir kin
Ġge ology
Ġ53 3
Ġattend ants
Ġtail s
rel s
ĠGre co
Ġtur moil
ĠBan aras
ĠSub sequent
ĠCongress man
ĠHart man
Ġimag ined
Ġmist akes
ĠMu gh
ĠAdv is
ĠAthlet es
ĠDomin ic
Ġ179 3
ĠHan uman
ĠFre eman
ĠGreg orian
Ġexpress es
Ġexpress ions
ĠSus anna
ĠChel tenham
Ġsail s
ĠCle m
ĠRod denberry
Ġunf air
Ġarran ge
ĠJac qu
ĠJud a
ĠIsab el
ĠCD s
ĠDublin ers
ĠSha an
ĠSha iva
Ġtend er
ĠBern issart
Ġflu orescence
Ġvert ically
Ġ177 2
Ġ177 5
Ġfashion ed
Ġ66 0
Ġneck lace
ĠMel an
ĠLow ell
ĠVol umes
rist y
ĠHard core
ĠRun way
Ġcho oses
Ġtable ts
ĠMid land
Ġvic ar
Ġresist ant
ĠHug o
ĠEdu ardo
Ġpound ers
ĠKel ley
Ġshel f
Ġcinem atic
ĠTs ung
gra ve
ĠSor i
intend ent
Ġur ine
Ġgall ons
ĠFair y
Ġshore line
Ġ121 9
ĠDA RPA
Ġju j
ĠYan jing
ĠLev y
Ġsoul s
Ġble w
Ġyouth ful
ĠEarl ier
CA P
Ġoption al
Ġrect or
Ġrect ory
Ġbright ness
ĠAld en
Ġconsum ers
Ġflo at
Ġsam pling
ĠCook e
Ġpreced ent
ĠConc erto
Ġnick el
ĠPass age
Ġserial ised
Ġproceed ing
Ġschem es
Ġconsult ing
Ġinaug urated
Ġtrick s
ĠTechn ical
ĠSem itic
Ġstrip es
Ġfold s
Ġblow ing
Ġgro oves
Ġhem isphere
ĠMir ror
ĠBow ie
ĠBow man
Ġ155 3
ĠSid ney
Ġpredomin ant
Ġmerch and
de acon
ĠPur itans
Ġrecru its
book s
ĠCP R
Ġcooper ate
ĠTu o
Ã¶n ig
Ġlat itude
Ġexplo itation
Ġinnov ation
Ġtherap eut
Ġalt itude
ĠWeb b
ĠWeb ber
Ġhen ch
ĠSupp lement
Ġabandon ing
ĠSign ificant
iney ards
ĠMagn etic
ĠProgram me
wan ath
Ġwel comed
Ġdict ators
Ġyield ed
Ġsuperv ised
ĠStr ateg
ĠStr achan
Ġexpert ise
ĠLincoln shire
Ġfault s
Ġbrain w
Ġhook ed
Ġrig id
Ġnotice able
ĠMcE n
Ġtox icity
ĠLind a
Ġencl osure
ĠBird s
ĠHop kins
Ġ115 0
Ġneighb ours
ĠObserv ations
Ġsoci ologist
ĠTan eytown
ĠRick y
ĠGill ian
Ġcler ical
Ġrot ating
Ġgor ge
Ġevolution ary
ĠArn hem
ĠImport ant
ĠReturn ing
MA D
Ġcosm ic
Ġhym n
ĠMes olithic
ĠMes opot
ĠMantell isaurus
Ar ts
Ġaudition ed
Ġlumin ous
Ġecho es
ĠLyn ch
Ġlect ures
Ġward robe
ĠTit us
Ġpossess es
ĠAud io
ĠCrab ble
ĠMond ay
ĠFat ality
ĠLam ar
Ġacceler ate
ĠLucas film
ĠLucas Arts
Ġsav age
Ġpled ge
ĠMcK ay
Ġtorn ado
Ġrejo in
ĠSaf in
Ġmicroscop ic
Ġdeterior ation
ĠWed ding
ĠHein z
ĠLeban ese
Ġinvent or
Ġgenu inely
ĠSac red
ĠCN N
ĠIR B
ĠFr ame
abl ished
ĠConstitution al
ĠTalk ing
Ġconform ity
Ġparad igm
iÃ¨ res
ĠTob ias
ĠTai wan
ĠAx el
ĠMaj esty
ĠHend erson
Ġencourag ement
Ġskelet al
cont inental
ĠTrou bles
ĠClear water
Ġnas al
Ġrecount ed
Ġmanifest ations
Ġecl ips
Ġecl ipse
ĠSud an
ĠPresent ation
Ġrecip ient
Ã« l
ĠKet awa
ĠKet tering
ĠPrim ary
Ġalgorith ms
ĠIb ari
ĠNam co
ĠUC L
Ġvolcan o
Ġvolcan ic
Ġdegener ate
ĠErn st
ĠSupport ing
hell o
ĠCost a
ĠGru ff
ĠNP R
Ġproced ure
ĠKras nyi
Ġye ast
Ġsteambo ats
ĠGalile o
ĠAntiqu aries
ĠPatriarch al
Ġjudg ment
Ġinconsist ent
ĠDinosaur s
Ġhadrosaur ids
Ġswallow ed
ĠLlan illtern
Ġquadru ple
Ġincl ination
ĠCinem a
Ġstip ulated
ĠRou ge
Ġperf ection
Ġtransm issions
Ġmedic ine
ĠLoft y
Ġextrater restrial
Ġextrater restrials
Ġeukary otic
Ġcyc les
Ġmim ic
ĠCrom well
ĠFres h
ĠMiddles ex
Ġbic ycle
Ġlament ed
ĠJama ica
Ġdisg ust
ĠCompet ition
Ġfemin ine
Ġauthent icity
ĠUpd ate
pat rick
Ġig uan
Ġpew s
ĠBess in
ĠIB M
Ġgest ure
Ġempt ied
Ġderiv atives
ĠSP ECT
ĠMans ion
ĠFing al
ĠLex ington
ĠZimmer man
ĠTele com
Ġpatri otic
ĠCornwall is
Ġhoney e
Ġnost al
ĠFa ust
Ġperce ive
Ġfeas ible
Ġnoct urnal
Ġdiscipl ines
Ġdeton ated
ĠSwan sea
Ġextravag ant
Ġnomine e
Ġplagiar ism
Ġpamph let
vol ent
ĠEthi opia
Ġperipher al
ĠYah oo
Ġregener ation
ĠScratch ley
ĠProduct ions
ĠMacl agen
Ġgoalsc orer
Ġreinst ated
Ġreef s
ĠLod ge
ĠJov ian
ĠKress enstein
ĠThir teen
Ġsubgen us
Ġspeck les
ĠPhon ographic
ĠSteff y
Ġpsychiat ric
ĠÎ¼ m
Ġze al
Ġgrie v
ĠNant ucket
ĠKow ang
ĠStol ac
Ġspru ce
Ġincap able
ĠHeid feld
Ġdisqual ified
ĠCalc utta
ĠPresbyter ian
Ġprecurs or
Ġoverturn ed
ĠCulver house
ĠSoy uz
ĠMek ong
ĠDore mus
ĠKed ok
ĠKas par
Ġâī ¤
Ġbackst ory
ĠSimultane ously
ĠPatric ia
Ġfresco es
pend icular
ĠTric eratops
ĠTrot ternish
ĠKoval ainen
ĠHebr ides
ĠThurs day
ĠYuc atÃ¡n
ĠAdor jÃ¡n
ĠMosc ow
Ġtren ches
Ġpagod as
ĠSogns vann
ĠBÃ©d ard
ĠIck es
imier z
ĠHots pur
ĠHitch cock
ĠPencer ah
Ġbefri ended
ĠRied esel
ĠGins berg
ĠOsh ii
Ġcontex ts
ĠAscle pius
Ġhowitz ers
ĠJeremia h
Ġundoub ted
ĠHoÊ» olulu
ĠMalcol m
ĠMesopot amia
ĠSPECT RE
1 1
3 7
8 7
A P
A R
I T
I CE
L as
M M
N U
O W
P L
P S
R T
R our
T M
U R
V A
V all
a an
b in
b ic
b eth
b ishops
c ely
c ycle
c Äģrya
e ated
e ous
f al
f el
f ax
g us
g osaurus
h ant
h ook
h aska
i ator
j un
k irts
l ay
l ord
l ue
l ash
m u
m atic
n os
n ock
n otes
o j
o active
p ots
p eck
s il
s Äģ
s burg
s lides
t or
u ition
u ke
v ir
v ik
v ius
w al
w art
w ara
x e
x is
y eloc
z b
½ ŀ
Î ¼
Ð ²
à ¨
ä ¸
Ġ Ê
ĥ sÄģ
Ġt we
Ġt apes
Ġt uber
Ġa ide
Ġa hi
in ch
in wood
in wall
er ie
Ġs ob
Ġs ars
Ġs apt
Ġs inc
Ġs orts
Ġs ights
Ġs ago
Ġo re
Ġw ic
Ġw ards
Ġw ires
Ġw rist
Ġw rapped
Ġw iped
at ae
or amic
it he
Ġc ot
Ġc ite
Ġc ull
Ġc ured
Ġc oven
en ia
Ġf us
Ġf ade
Ġf its
Ġf idelity
is al
is ÅĤaw
Ġb out
Ġb ree
Ġb ug
Ġb ike
Ġb ah
Ġb achelor
Ġb izarre
an aman
Ġin ject
Ġin active
Ġin gestion
al c
al em
al ach
Ġp ic
Ġp ess
Ġp ear
Ġp ix
Ġp ads
as is
ro pt
ic y
ic on
ic emen
Ġm ol
Ġm ouse
Ġm oss
Ġm akers
Ġd uel
Ġh ats
ion ation
le f
ĠT in
ĠT ape
ĠT rap
ĠT roll
ĠT LC
Ġre used
ĠA C
ĠA id
ĠA ru
ĠA ck
ĠA zz
ĠA CC
ĠA OL
ĠS ain
ĠS ury
ĠS oci
ĠS Ã¡
ĠS ask
ĠS inner
ent ful
il ations
il iar
Ġth res
ĠC ed
ĠC ic
ĠC her
ĠC ord
ĠC att
ĠC ities
ĠC ope
ĠC erat
ĠC osm
ĠC urrent
om at
Ġl ac
Ġl ays
Ġl amin
Ġl ounge
am us
Ġe g
Ġn our
ac ies
ac ab
ac rosaurus
ac erb
ĠM C
ĠM K
ĠM W
ĠM w
ĠM am
ĠM ud
ĠM ik
ĠM aking
ĠM erv
ĠM ama
ĠM anga
ĠM GB
Ġon ward
ĠB L
ĠB ag
ĠB ott
ĠB urg
ĠB DS
ĠB rett
ĠB ET
ĠB ungie
ĠB AFTA
ĠI F
ĠI g
ĠI bar
Ġg ent
Ġg ull
et a
et ra
ol ian
ol ves
id i
id ging
Ġas leep
ĠH ers
ĠH og
ĠH ath
ĠH oot
ĠH ersey
us p
ow ing
Ġst int
Ġst ink
Ġst yled
ĠP R
ĠP i
ĠP on
ĠP ag
ĠP ere
ĠP ound
ĠP row
ĠP app
ĠP ius
ĠP awn
ĠP orter
ĠP uma
ĠP itchf
ver ts
ĠR C
ĠR b
ĠR ated
ĠR ip
ĠR acing
ĠR ommel
th y
ĠD ate
ĠD art
ĠD epend
ĠD aly
ĠD rey
ĠD urga
ĠF ay
ĠF ew
ĠF ok
ĠF ile
ĠF ury
ĠF ars
ĠF acing
Ġwh ip
ul se
ul ative
ch art
ch ief
ĠW B
ĠW ent
ĠW ir
ĠW ign
ĠW ass
ĠW ings
ĠW DTV
Ġcon ve
Ġcon ning
ra il
ĠG ide
ĠG ann
ĠG ale
ĠG enesis
ĠG uru
os al
os yn
os cop
ĠL ip
ĠL und
ĠL acy
ĠL anger
ĠL overs
ĠN O
ĠN c
ĠN g
ĠN ice
ĠN iger
Ġan terior
um ing
um ption
ĠJ all
ĠJ ude
ĠJ ermaine
ag ged
Ġhe ating
ist ration
av orable
ĠE z
ĠE SA
ĠO kin
op old
op ao
res y
if ully
Ġv ars
Ġv andal
Ġv ineyards
ort als
Ġde ar
Ġde graded
pp ings
ĠIn ez
Ġr ally
Ġr ides
Ġr uf
Ġr idden
Ġr arity
ard ing
ard om
ate urs
art hen
Ġch im
Ġor ch
ab el
ant om
ud ad
oc ative
oc olate
Ġex ter
Ġex its
Ġex acerb
pt u
ess el
ĠK ip
ĠK rat
ĠK nown
ĠK oh
ĠK iller
ĠK Ã¶nig
Ġpl ut
Ġpl ank
qu ay
Ġare nas
Ġsh y
Ġsh ores
Ġk in
Ġk rypton
ĠU se
ĠU til
ov icky
ĠSt a
ĠSt or
ĠSt ro
ĠSt ap
ĠSt atus
ast opol
Ġsp ok
Ġsp ind
Ġsp ends
ment al
Ġnot ified
ight on
ap ult
Ġu g
Ġu pl
ish i
ĠCh ir
ĠCh oir
og s
og amous
og lyph
Ġun int
Ġun iqu
Ġun ev
Ġun just
ĠV as
ĠV ision
ĠV isions
ĠV oren
ĠV essel
Ġinc orporation
Ġcomp elling
Ġcomp ressed
Ġcomp assion
Ġcomp endium
Ġcomp utational
so on
Ġint est
Ġ20 3
Ġcl aret
Ġcl aws
Ġus eless
ĠHe yl
ĠHe be
ĠHe ads
Ġro be
Ġro bed
Ġro osts
ond uct
ĠTh ie
ĠTh orn
Ġsc outs
Ġsc enic
pl ess
pl ane
Ġdis k
Ġdis ob
are a
ach andra
Ġj oked
Ġman power
Ġdes erves
Ġdes irable
Ġover b
Ġover g
Ġover run
Ġser geant
ĠY ours
Ġout ward
Ġpre cept
Ġup ro
Ġup ward
ens ing
nder land
Ġfin ely
int o
Ġcomm end
Ġcomm itting
Ġshe ets
amp ire
Ġall oy
ces ter
ĠAn ch
[...]
